<pad>	0
<unk>	0
[CLS]	0
[SEP]	0
[MASK]	0
(	0
)	0
\”	0
-	0
.	0
–	0
£	0
€	0
▁	-2.39322
t	-3.12649
co	-3.51672
://	-3.56214
/	-3.66477
▁https	-3.67526
▁#	-3.79964
s	-3.84868
▁@	-4.19106
'	-4.5804
▁to	-4.65187
▁the	-4.66013
,	-4.77596
:	-4.87624
▁in	-4.98467
▁a	-5.09298
▁of	-5.19416
2	-5.35168
1	-5.38819
▁for	-5.41836
4	-5.4282
3	-5.43579
▁and	-5.51889
5	-5.52587
▁i	-5.53109
▁is	-5.55891
7	-5.55982
m	-5.56962
9	-5.58663
8	-5.58912
6	-5.59634
!	-5.59987
0	-5.60078
d	-5.62471
a	-5.64024
_	-5.66275
▁on	-5.71408
▁you	-5.73059
i	-5.74039
▁http	-5.79315
n	-5.85328
’	-5.88384
y	-5.93742
e	-5.97053
r	-5.9779
news	-6.02684
▁rt	-6.05576
▁it	-6.07838
▁trump	-6.09089
o	-6.13541
▁with	-6.1392
k	-6.15599
?	-6.15717
c	-6.16271
b	-6.20504
▁that	-6.2187
▁this	-6.23731
w	-6.23813
p	-6.25352
h	-6.27762
l	-6.29019
f	-6.29266
x	-6.30995
u	-6.34299
g	-6.35018
j	-6.35081
▁at	-6.39739
▁be	-6.40207
v	-6.40661
z	-6.43434
▁are	-6.46458
"	-6.47355
▁"	-6.55192
▁'@	-6.57815
▁my	-6.58072
▁not	-6.64718
▁we	-6.66083
q	-6.672
▁by	-6.69234
▁from	-6.69257
re	-6.71542
ing	-6.72489
▁your	-6.74088
ed	-6.76259
▁new	-6.77934
▁have	-6.79724
▁&	-6.80426
;	-6.80894
▁he	-6.82811
▁who	-6.86181
▁as	-6.86909
▁was	-6.86975
▁will	-6.88745
▁after	-6.89495
in	-6.89741
▁just	-6.89875
▁all	-6.90549
▁what	-6.9084
▁they	-6.91696
▁can	-6.9206
▁me	-6.92793
▁about	-6.93776
▁out	-6.99706
▁up	-7.02062
▁man	-7.02333
▁but	-7.03809
▁people	-7.03822
▁police	-7.04166
▁no	-7.05159
▁so	-7.07336
sports	-7.11045
▁like	-7.1314
▁his	-7.13477
▁if	-7.15635
▁do	-7.18231
@	-7.18654
▁get	-7.18907
▁has	-7.19847
▁how	-7.20254
▁don	-7.20284
amp	-7.20356
▁more	-7.21623
the	-7.21843
▁when	-7.24447
▁over	-7.24847
▁obama	-7.2601
▁one	-7.26809
▁now	-7.27154
▁‘	-7.27482
politics	-7.27923
▁our	-7.28744
er	-7.335
▁an	-7.33862
▁us	-7.34549
▁workout	-7.35632
▁u	-7.42515
▁black	-7.44261
ly	-7.46129
▁her	-7.47216
▁“	-7.4902
▁says	-7.50712
ll	-7.53208
world	-7.55133
▁or	-7.56657
▁she	-7.5709
”	-7.57595
▁video	-7.57736
▁their	-7.5848
▁time	-7.58996
ve	-7.59581
▁president	-7.59816
▁\|	-7.6004
▁hillary	-7.60931
▁day	-7.61697
▁why	-7.61987
local	-7.65145
trump	-7.67654
▁white	-7.68423
th	-7.68475
▁clinton	-7.68529
▁go	-7.69332
▁need	-7.7028
▁know	-7.71212
▁breaking	-7.71656
no	-7.72521
▁make	-7.72742
▁state	-7.73052
▁via	-7.74627
▁good	-7.76184
al	-7.78337
▁back	-7.78882
▁want	-7.78885
▁there	-7.80226
▁here	-7.8032
▁than	-7.8109
my	-7.82829
▁would	-7.83036
▁love	-7.84028
▁say	-7.84765
▁first	-7.84771
▁woman	-7.84861
on	-7.85258
▁into	-7.87756
▁him	-7.90993
es	-7.91336
us	-7.91804
we	-7.91904
▁should	-7.91984
▁america	-7.92059
▁them	-7.92168
▁down	-7.92189
/8	-7.92665
▁see	-7.9277
▁against	-7.92782
▁house	-7.92821
▁today	-7.93839
▁only	-7.9407
/1	-7.94109
is	-7.94573
▁right	-7.95235
▁being	-7.97284
▁killed	-7.97548
/3	-7.98436
▁never	-7.98604
▁some	-7.99771
▁media	-8.01355
▁off	-8.01547
▁look	-8.01741
me	-8.02043
▁think	-8.02132
man	-8.02308
️	-8.03238
▁still	-8.03752
/9	-8.04042
le	-8.0421
/6	-8.06466
/5	-8.06665
/7	-8.06881
▁take	-8.07586
/0	-8.07626
of	-8.07628
▁watch	-8.08019
/4	-8.09564
▁life	-8.0984
▁did	-8.1077
▁been	-8.11356
▁shooting	-8.11384
▁because	-8.1148
ny	-8.12643
la	-8.12646
up	-8.12719
ch	-8.13595
▁years	-8.13664
▁let	-8.14165
▁women	-8.14625
▁going	-8.15578
/2	-8.1626
▁home	-8.17049
or	-8.17543
▁had	-8.18466
top	-8.18714
▁best	-8.1897
▁these	-8.19136
to	-8.19422
▁could	-8.19582
▁got	-8.19822
maga	-8.20044
▁great	-8.20527
▁stop	-8.20851
be	-8.21329
▁school	-8.21472
▁city	-8.22402
an	-8.22462
▁really	-8.23258
▁two	-8.23628
▁too	-8.24621
▁dead	-8.24837
words	-8.24846
▁world	-8.24947
▁american	-8.25278
en	-8.25324
!!	-8.25685
▁death	-8.25865
▁fire	-8.26325
do	-8.2695
un	-8.27199
▁way	-8.2745
▁donald	-8.27584
▁were	-8.28046
by	-8.28635
▁vote	-8.2882
▁help	-8.28891
go	-8.2893
realdonaldtrump	-8.28973
▁car	-8.29879
▁even	-8.29916
▁show	-8.30409
▁bill	-8.30584
▁work	-8.31002
▁may	-8.31235
▁shot	-8.31352
im	-8.31924
▁won	-8.32218
▁live	-8.32291
old	-8.32528
▁before	-8.32546
dj	-8.33212
▁year	-8.33271
▁@_	-8.33438
if	-8.33817
da	-8.34224
ma	-8.34816
year	-8.35188
▁every	-8.35948
▁again	-8.36863
▁much	-8.37368
▁most	-8.37387
topnews	-8.37682
health	-8.37949
▁found	-8.38005
de	-8.38174
▁real	-8.38984
▁win	-8.39161
▁big	-8.39237
nd	-8.39285
▁said	-8.39543
am	-8.40588
ka	-8.40874
▁attack	-8.41232
mar	-8.41366
blacklivesmatter	-8.41556
▁exercise	-8.41687
▁another	-8.41825
he	-8.42188
el	-8.42226
gt	-8.42575
▁free	-8.42789
▁north	-8.43845
na	-8.44115
ers	-8.44276
ie	-8.44423
▁last	-8.45468
▁report	-8.46242
▁support	-8.463
▁arrested	-8.46326
mc	-8.46685
it	-8.47085
and	-8.47711
all	-8.47873
ca	-8.47884
▁family	-8.47939
so	-8.48186
▁gop	-8.48317
▁game	-8.48404
▁then	-8.4841
rd	-8.48631
video	-8.48903
▁court	-8.49096
pm	-8.49384
mr	-8.49762
ne	-8.50111
pjnet	-8.5046
▁other	-8.50827
black	-8.51494
▁during	-8.51511
▁ever	-8.51931
▁russia	-8.52276
▁lol	-8.52851
▁must	-8.53148
▁where	-8.53179
business	-8.53306
▁money	-8.5367
▁country	-8.54251
uk	-8.54504
xo	-8.55067
▁san	-8.55341
▁keep	-8.5575
▁while	-8.55795
pa	-8.5585
▁cnn	-8.5598
ry	-8.56107
▁million	-8.56549
▁high	-8.56702
▁call	-8.56845
▁deal	-8.57036
▁left	-8.57188
yo	-8.57482
▁well	-8.57522
!!!	-8.57696
▁fight	-8.57708
▁men	-8.58008
▁next	-8.58136
▁anti	-8.58441
oh	-8.58669
▁made	-8.59709
&	-8.59758
dr	-8.60328
▁any	-8.60692
▁week	-8.61112
▁war	-8.61328
mi	-8.61579
tcot	-8.61612
▁under	-8.61885
▁doesn	-8.62092
▁god	-8.62206
▁10	-8.62373
▁many	-8.62745
ep	-8.62875
▁lose	-8.63362
▁better	-8.63544
ra	-8.63598
em	-8.636
▁campaign	-8.63687
▁twitter	-8.63855
▁always	-8.64186
▁own	-8.64249
▁case	-8.64487
▁hate	-8.64489
▁didn	-8.64516
▁give	-8.6485
▁gun	-8.64903
▁crash	-8.65033
10	-8.65225
md	-8.65231
▁county	-8.65292
▁party	-8.65511
▁hit	-8.65573
ro	-8.65653
▁does	-8.65679
▁election	-8.65767
▁come	-8.65773
fl	-8.66187
rn	-8.6634
▁calls	-8.67119
pr	-8.67876
▁gets	-8.6805
▁south	-8.68077
▁those	-8.68191
16	-8.68649
jr	-8.68924
dc	-8.68964
▁please	-8.69053
▁things	-8.69091
sp	-8.69191
▁law	-8.69841
mo	-8.69919
2016	-8.70518
▁officer	-8.7067
▁post	-8.70747
▁girl	-8.712
mj	-8.71551
13	-8.71802
▁un	-8.71871
▁former	-8.723
lo	-8.72594
▁end	-8.72597
▁night	-8.72664
▁texas	-8.72808
ga	-8.72835
▁plan	-8.73621
ni	-8.73975
ck	-8.74283
tech	-8.74409
ce	-8.74489
▁weight	-8.74495
bo	-8.74901
breaking	-8.75147
▁happy	-8.75151
life	-8.75248
ke	-8.75379
▁someone	-8.75669
fm	-8.75886
▁change	-8.7632
op	-8.76421
ya	-8.76446
▁national	-8.7653
eu	-8.76539
▁use	-8.76809
▁same	-8.76823
▁trying	-8.76932
15	-8.77005
▁nothing	-8.77214
hillary	-8.7723
di	-8.77542
for	-8.77667
▁suspect	-8.77899
bb	-8.7796
▁bad	-8.78354
▁start	-8.78368
ic	-8.78462
cr	-8.78676
▁thank	-8.78706
▁tell	-8.78769
▁am	-8.7882
▁find	-8.78986
▁face	-8.79252
ko	-8.79264
xx	-8.79284
you	-8.79598
yl	-8.79925
▁judge	-8.80684
▁john	-8.80935
day	-8.8105
jo	-8.81068
love	-8.81227
▁americans	-8.81569
▁something	-8.8157
fo	-8.81648
ey	-8.81667
▁music	-8.82178
▁its	-8.82358
▁history	-8.82603
▁china	-8.82866
▁korea	-8.83361
▁thing	-8.83548
▁top	-8.83588
▁charged	-8.83632
midnight	-8.8377
▁government	-8.83839
▁morning	-8.83843
▁wants	-8.84023
▁2016	-8.84263
rr	-8.84347
va	-8.8439
li	-8.84584
ja	-8.84602
▁fake	-8.84675
▁makes	-8.85015
▁remember	-8.85025
ac	-8.85232
fr	-8.85524
iv	-8.85614
▁very	-8.85764
ad	-8.86141
▁power	-8.86261
wh	-8.86422
ex	-8.86697
▁believe	-8.86854
ff	-8.86874
hi	-8.86907
ph	-8.86989
ki	-8.87082
▁long	-8.87185
gr	-8.87302
▁near	-8.87557
__	-8.87642
▁everyone	-8.87656
um	-8.87776
▁join	-8.88069
▁called	-8.88296
ar	-8.8836
ee	-8.88389
▁children	-8.88525
▁care	-8.88565
dy	-8.88675
ge	-8.88953
▁democrats	-8.89089
▁de	-8.8927
▁truth	-8.8955
▁without	-8.89604
▁getting	-8.89688
▁put	-8.8981
▁ex	-8.8991
▁pay	-8.9004
nc	-8.90093
▁doing	-8.90289
▁open	-8.90488
▁racist	-8.90602
20	-8.90751
▁read	-8.91003
▁away	-8.91046
▁person	-8.91236
▁run	-8.91277
np	-8.91326
▁california	-8.91567
12	-8.91585
▁set	-8.91733
po	-8.91769
▁kids	-8.91819
id	-8.91936
▁job	-8.92057
▁play	-8.92075
as	-8.92248
▁feel	-8.92357
▁check	-8.92527
▁murder	-8.92718
▁stand	-8.9272
ui	-8.92949
ap	-8.93209
cy	-8.9327
▁child	-8.93285
▁team	-8.93596
11	-8.93696
ky	-8.93967
▁water	-8.94063
▁fbi	-8.94129
▁which	-8.94137
mp	-8.94243
mu	-8.94277
fi	-8.94728
▁through	-8.94756
crime	-8.9478
▁latest	-8.94828
▁shit	-8.95058
▁muslim	-8.95066
yr	-8.95164
▁nfl	-8.95349
ho	-8.95414
▁sex	-8.95439
ba	-8.95495
kc	-8.9564
fb	-8.95693
pc	-8.9584
▁thanks	-8.96136
▁dies	-8.96458
nj	-8.96483
▁accused	-8.96495
▁also	-8.96548
fe	-8.96595
cl	-8.96683
▁liberal	-8.96879
▁wrong	-8.96897
▁little	-8.9697
▁chicago	-8.97064
▁tax	-8.97079
pe	-8.97137
ok	-8.97143
yy	-8.97569
nn	-8.97913
▁isis	-8.98043
▁west	-8.98115
entertainment	-8.98217
sa	-8.98367
ah	-8.98375
▁days	-8.98505
▁hope	-8.98855
17	-8.98881
▁boy	-8.98913
▁security	-8.9903
af	-8.99257
ia	-8.9942
potus	-8.99592
▁story	-8.99676
▁coming	-8.99683
lp	-8.99684
one	-9.00034
▁playing	-9.00186
▁head	-9.00375
▁since	-9.00525
▁group	-9.00548
qg	-9.00561
▁syria	-9.00606
▁cops	-9.00665
#	-9.0093
br	-9.01101
vp	-9.01107
aa	-9.01418
▁liberals	-9.01706
▁senate	-9.01795
▁kill	-9.01822
ri	-9.01851
▁congress	-9.01889
*	-9.01916
▁military	-9.01952
▁everything	-9.02053
ox	-9.02156
nh	-9.02376
27	-9.02516
▁old	-9.02643
▁race	-9.02845
▁shows	-9.02973
23	-9.03669
▁talk	-9.03959
▁baby	-9.04153
▁army	-9.04923
▁times	-9.04971
pp	-9.05154
▁air	-9.05315
ha	-9.05333
wr	-9.05357
▁russian	-9.05377
▁part	-9.05595
ak	-9.05635
cleveland	-9.0577
az	-9.05881
▁hard	-9.05917
▁public	-9.05956
hr	-9.06198
▁isn	-9.06358
du	-9.06394
se	-9.06845
il	-9.06891
ez	-9.0706
▁done	-9.07497
▁ban	-9.07541
rs	-9.07774
aj	-9.07825
▁missing	-9.07969
gu	-9.0803
bi	-9.08268
lu	-9.08301
▁around	-9.08313
able	-9.08349
ng	-9.08519
mn	-9.08697
▁poll	-9.08718
fu	-9.09129
its	-9.09299
ww	-9.09475
og	-9.09667
▁claims	-9.0972
real	-9.09827
ab	-9.0997
cc	-9.10069
ur	-9.10142
cu	-9.10295
vi	-9.10475
14	-9.10556
▁injured	-9.10601
isis	-9.10722
king	-9.10729
mm	-9.10821
▁teen	-9.10827
ii	-9.10978
sh	-9.11051
fc	-9.11093
▁tweet	-9.11149
oc	-9.11412
ol	-9.11425
son	-9.11487
obama	-9.11526
ek	-9.11536
▁sanders	-9.11722
ju	-9.11779
▁ready	-9.12002
▁needs	-9.12028
uh	-9.12032
pd	-9.12043
kn	-9.12144
▁office	-9.1263
▁rally	-9.12659
▁islamic	-9.1267
▁violence	-9.12813
▁three	-9.13369
cj	-9.13388
nk	-9.13414
bc	-9.1346
▁making	-9.13606
io	-9.1367
24	-9.13675
▁oh	-9.1369
ze	-9.13824
rp	-9.13878
50	-9.14031
▁iran	-9.14092
▁name	-9.14195
▁attacks	-9.1421
19	-9.14372
▁pro	-9.14469
30	-9.14564
▁speech	-9.14662
▁control	-9.14788
fa	-9.14876
▁looking	-9.15224
▁health	-9.15602
uc	-9.15696
hm	-9.15839
▁enough	-9.15859
▁mayor	-9.15944
21	-9.16001
hq	-9.16055
oo	-9.16109
▁takes	-9.16118
▁body	-9.16134
xy	-9.16196
pu	-9.16274
▁political	-9.16414
jj	-9.16472
ku	-9.16581
▁star	-9.16587
▁park	-9.16697
▁goes	-9.16747
▁rights	-9.16768
ci	-9.16822
▁side	-9.16835
▁killing	-9.1701
ld	-9.17021
za	-9.17187
dd	-9.17204
wa	-9.17441
▁matter	-9.17451
bl	-9.17513
music	-9.17528
rk	-9.17642
nw	-9.17679
▁yes	-9.17937
▁supporters	-9.18011
jk	-9.18014
▁tonight	-9.18044
ev	-9.1814
wi	-9.18144
lb	-9.18163
km	-9.18182
gop	-9.18214
▁dog	-9.18338
ley	-9.18425
eh	-9.1867
▁al	-9.18753
▁justice	-9.18784
usa	-9.1879
py	-9.18909
▁debate	-9.1892
wu	-9.19077
▁anyone	-9.19087
▁lost	-9.19102
▁dems	-9.19131
▁true	-9.19406
gy	-9.19669
▁super	-9.19832
18	-9.19844
ef	-9.19883
▁young	-9.20064
▁leader	-9.2008
px	-9.20191
▁prison	-9.20219
▁wall	-9.20225
hd	-9.20373
qb	-9.2038
dm	-9.20622
gm	-9.20734
ig	-9.20785
▁york	-9.2084
nowplaying	-9.20867
mb	-9.20903
▁lives	-9.20921
▁2017	-9.20948
▁leave	-9.2095
rm	-9.20989
▁antifa	-9.21033
ye	-9.21122
▁mom	-9.21158
hn	-9.21314
▁least	-9.2142
mh	-9.215
▁potus	-9.2152
▁friends	-9.21565
pi	-9.2163
ej	-9.21695
rb	-9.2171
▁sure	-9.21739
▁gonna	-9.21808
▁college	-9.21852
05	-9.21921
jd	-9.21924
▁stay	-9.2197
▁food	-9.22013
je	-9.22068
▁used	-9.22073
00	-9.22236
▁lead	-9.22425
]	-9.22494
▁ohio	-9.22683
rf	-9.22698
▁cop	-9.22789
▁washington	-9.22897
environment	-9.22936
vw	-9.22972
▁christmas	-9.23162
qe	-9.23257
ew	-9.23461
▁heart	-9.23615
▁actually	-9.23699
gi	-9.23772
22	-9.23941
▁students	-9.24071
▁already	-9.24307
bn	-9.24365
▁guy	-9.24376
99	-9.24449
iq	-9.24513
mf	-9.24664
america	-9.24689
▁charges	-9.24742
ul	-9.24879
xi	-9.24883
▁buy	-9.24913
kr	-9.24987
▁second	-9.24998
▁officials	-9.25002
bm	-9.25103
▁protest	-9.25111
dg	-9.25112
cm	-9.25113
nz	-9.25156
jm	-9.25223
fakenews	-9.25471
ov	-9.25483
▁full	-9.25764
kf	-9.25824
ob	-9.2585
ru	-9.25932
25	-9.25959
▁enlist	-9.25967
wo	-9.26037
▁try	-9.26205
▁special	-9.2622
▁federal	-9.26403
▁—	-9.26457
land	-9.2648
▁mother	-9.26679
star	-9.26808
▁follow	-9.26847
▁sign	-9.26854
▁far	-9.26876
▁[	-9.26885
▁tv	-9.26991
gl	-9.27037
au	-9.27038
nu	-9.2705
not	-9.27088
▁behind	-9.2715
yx	-9.27235
▁listen	-9.27251
rc	-9.27316
ix	-9.2736
cd	-9.27491
▁bernie	-9.27517
▁lot	-9.27575
oz	-9.2762
vo	-9.2762
hh	-9.27672
yg	-9.2776
▁street	-9.27821
new	-9.28048
▁beat	-9.28161
zz	-9.28211
hillaryclinton	-9.28246
cnn	-9.28339
rj	-9.28421
▁student	-9.28564
qu	-9.28586
▁chief	-9.28622
▁until	-9.28637
eb	-9.28739
▁red	-9.29001
thi	-9.29121
dl	-9.29241
girl	-9.29347
26	-9.29476
bu	-9.29481
jb	-9.29616
jc	-9.29698
pl	-9.29717
▁son	-9.29856
▁east	-9.30034
ji	-9.30036
hu	-9.30072
db	-9.30173
▁future	-9.30207
bf	-9.3028
▁driver	-9.30307
▁record	-9.30309
▁yet	-9.30368
nm	-9.30431
wv	-9.30447
▁republican	-9.30557
lg	-9.30558
▁states	-9.30608
eq	-9.30623
!'	-9.30703
out	-9.30774
kd	-9.30798
hv	-9.30901
gf	-9.30921
less	-9.30992
▁wait	-9.30995
▁meet	-9.31117
▁official	-9.31142
dk	-9.31183
▁investigation	-9.31419
xd	-9.31486
ms	-9.31573
oj	-9.31658
gg	-9.31663
pg	-9.31785
▁florida	-9.31797
rl	-9.31819
▁cleveland	-9.31821
lr	-9.31915
▁illegal	-9.31921
ton	-9.32085
cb	-9.32128
vv	-9.32315
mz	-9.32332
▁using	-9.32359
▁drug	-9.32494
▁miss	-9.3259
▁fuck	-9.32607
▁refugees	-9.32744
▁looks	-9.32846
uw	-9.32907
▁between	-9.32938
45	-9.33062
yu	-9.331
art	-9.33114
fd	-9.3318
▁wow	-9.3324
▁cruz	-9.33264
▁having	-9.33353
ei	-9.33511
ec	-9.33515
eo	-9.33558
time	-9.33559
yb	-9.33635
nx	-9.33663
▁list	-9.33722
▁friend	-9.3377
▁anything	-9.33783
▁season	-9.33936
god	-9.33941
▁syrian	-9.34011
zo	-9.34056
hg	-9.34129
od	-9.34196
just	-9.34211
▁move	-9.34239
kh	-9.3428
▁girls	-9.3429
zy	-9.34301
33	-9.34368
yd	-9.34387
pf	-9.34489
su	-9.34537
ay	-9.34595
ij	-9.34645
ccot	-9.34659
▁mean	-9.34699
▁jail	-9.34716
ag	-9.34739
ea	-9.34889
▁ask	-9.34913
nv	-9.35024
bv	-9.35123
▁arrest	-9.35123
▁book	-9.35178
fx	-9.35273
oa	-9.35317
▁working	-9.3533
don	-9.3536
▁problem	-9.35395
om	-9.35419
bp	-9.35495
▁hear	-9.35515
rh	-9.35567
ir	-9.35599
▁thought	-9.35631
pj	-9.35692
ow	-9.35753
mk	-9.35827
95	-9.35861
gq	-9.36053
▁saying	-9.36054
▁weekend	-9.36057
▁seen	-9.36106
▁*	-9.36125
lee	-9.3638
ae	-9.36562
alternative	-9.36645
▁wife	-9.3668
wm	-9.36693
▁break	-9.36711
▁place	-9.36825
▁baltimore	-9.36942
dw	-9.3697
ln	-9.371
ik	-9.37251
▁social	-9.37252
▁guilty	-9.37417
miami	-9.37446
90	-9.37446
ps	-9.3745
▁loss	-9.37522
▁service	-9.37565
jp	-9.3759
xl	-9.3771
▁voters	-9.37752
white	-9.37829
▁presidential	-9.37842
hc	-9.37843
▁peace	-9.37912
▁vs	-9.37985
pk	-9.38023
may	-9.38174
os	-9.38268
oq	-9.38407
▁wins	-9.3845
▁border	-9.38545
▁told	-9.38584
ax	-9.38682
lj	-9.38752
wn	-9.38822
75	-9.39063
jf	-9.39132
ine	-9.39145
hy	-9.39219
yp	-9.39472
hp	-9.39507
▁20	-9.39617
lc	-9.39811
▁dem	-9.39856
cw	-9.39868
▁trial	-9.39913
fn	-9.39975
▁photo	-9.40001
lm	-9.40121
yw	-9.40144
wc	-9.40178
dp	-9.40275
▁father	-9.4035
fw	-9.40355
▁save	-9.40389
aw	-9.40437
28	-9.40466
lw	-9.40517
▁taking	-9.40525
▁pre	-9.40531
gc	-9.40585
bk	-9.40723
hl	-9.40841
▁orleans	-9.40843
66	-9.4097
nl	-9.40994
▁reason	-9.40994
??	-9.41061
gh	-9.41106
qm	-9.41351
▁past	-9.41421
69	-9.41576
97	-9.41577
bw	-9.41772
▁become	-9.41841
wd	-9.41929
▁12	-9.4218
qa	-9.42199
cv	-9.42232
youtube	-9.42282
kp	-9.42301
▁app	-9.42379
zm	-9.42416
▁viral	-9.4251
▁running	-9.42689
▁talks	-9.42724
rv	-9.42853
▁james	-9.43015
ih	-9.43091
▁immigration	-9.43251
▁order	-9.43286
▁business	-9.43299
lv	-9.43384
kj	-9.43445
pb	-9.43451
▁la	-9.43479
wk	-9.4353
gd	-9.43559
▁mt	-9.43587
yn	-9.43592
kk	-9.4364
▁freedom	-9.43762
▁march	-9.43775
ian	-9.43791
nf	-9.43883
▁both	-9.43886
98	-9.43967
oe	-9.44032
▁beautiful	-9.44035
lh	-9.44057
▁retweet	-9.44095
96	-9.44206
hb	-9.44264
▁victims	-9.44378
big	-9.44397
dn	-9.44467
mg	-9.44547
▁act	-9.44555
zd	-9.44569
▁threat	-9.44571
▁bring	-9.44593
bj	-9.44597
▁crime	-9.44737
▁republicans	-9.44738
jl	-9.44772
kb	-9.44832
▁close	-9.44847
▁turn	-9.4487
▁human	-9.44911
cn	-9.44983
les	-9.452
01	-9.45233
bg	-9.45407
▁once	-9.45411
jn	-9.45491
american	-9.45514
lz	-9.45527
▁comey	-9.45559
ux	-9.45592
ion	-9.45625
▁cause	-9.4568
bh	-9.45719
ver	-9.45845
▁hell	-9.45857
42	-9.45895
77	-9.45907
▁point	-9.45938
▁force	-9.45945
mx	-9.46102
gp	-9.46144
lk	-9.46155
pz	-9.46183
iam	-9.46222
yh	-9.46234
80	-9.46259
▁center	-9.46263
kl	-9.4633
yc	-9.46391
▁officers	-9.46418
▁fired	-9.46467
jg	-9.46644
vy	-9.46665
kw	-9.46829
dq	-9.46831
▁early	-9.46881
▁system	-9.46898
▁road	-9.46916
ml	-9.46947
yj	-9.47064
▁democrat	-9.47071
jh	-9.47134
ud	-9.47156
hk	-9.47242
aq	-9.47247
pn	-9.47271
rw	-9.473
yv	-9.4732
yf	-9.47342
zi	-9.47403
zb	-9.47486
vm	-9.47503
wp	-9.47548
jay	-9.4755
▁racism	-9.47588
▁eat	-9.47603
94	-9.47718
lf	-9.47871
jw	-9.47886
vh	-9.47899
qk	-9.47943
ling	-9.48056
▁four	-9.48144
hw	-9.48148
▁meeting	-9.48163
rx	-9.48204
mw	-9.48327
eg	-9.48433
gn	-9.48488
vs	-9.48606
qr	-9.48762
xm	-9.4882
▁major	-9.48846
▁plans	-9.48949
40	-9.48966
dh	-9.48972
▁mind	-9.49049
▁fox	-9.49069
xc	-9.49181
▁line	-9.49194
32	-9.49241
▁press	-9.49273
▁talking	-9.49291
rq	-9.49371
▁possible	-9.49442
▁united	-9.49507
▁wanted	-9.49563
vb	-9.49628
jv	-9.49685
qd	-9.49695
cg	-9.49856
dx	-9.49904
▁kansas	-9.49926
qo	-9.49945
▁michael	-9.4995
▁outside	-9.50062
55	-9.50084
fy	-9.50165
bq	-9.50168
fit	-9.50289
▁kills	-9.50309
29	-9.50313
ish	-9.50361
xp	-9.50377
▁fraud	-9.504
nb	-9.50426
gw	-9.50467
ao	-9.50488
cf	-9.50627
85	-9.50668
hf	-9.50699
av	-9.50781
zf	-9.50835
wf	-9.50843
▁charlottesville	-9.50892
kv	-9.5104
▁facebook	-9.51057
35	-9.51087
qw	-9.51096
68	-9.51117
cha	-9.51149
▁photos	-9.51151
ity	-9.51166
▁bank	-9.51201
kg	-9.51298
qi	-9.51364
▁community	-9.51464
ib	-9.51471
▁reports	-9.51478
08	-9.51582
sy	-9.5159
xr	-9.51647
wb	-9.5166
ai	-9.51676
ue	-9.51703
88	-9.51724
93	-9.5174
uo	-9.51826
yk	-9.5192
44	-9.51995
boy	-9.52008
zu	-9.52074
zl	-9.52078
fg	-9.52097
dv	-9.52112
yq	-9.52286
▁visit	-9.52295
▁agree	-9.5237
▁protesters	-9.525
▁nice	-9.52507
ate	-9.52529
ness	-9.52537
bz	-9.52561
▁together	-9.52608
xa	-9.52716
rejected	-9.52752
df	-9.52777
▁governor	-9.52801
way	-9.52808
▁online	-9.52895
xh	-9.529
gx	-9.52934
▁self	-9.5297
▁bomb	-9.52993
xk	-9.53103
▁protect	-9.53149
vn	-9.5315
gz	-9.53191
▁tomorrow	-9.53222
▁king	-9.53295
▁$1	-9.53349
▁paul	-9.5337
▁muslims	-9.53414
▁damn	-9.53473
ies	-9.53493
vr	-9.53535
vk	-9.53641
38	-9.53658
▁might	-9.5369
vj	-9.5379
▁finally	-9.53858
▁safe	-9.53862
▁area	-9.54009
07	-9.54036
▁amazing	-9.54055
▁friday	-9.54068
▁ppl	-9.5417
ua	-9.54207
thing	-9.54209
▁mueller	-9.54362
run	-9.5438
▁fun	-9.54406
wl	-9.54463
xe	-9.54516
bd	-9.54607
▁took	-9.54739
ip	-9.54891
▁football	-9.54905
nr	-9.54905
▁hot	-9.54922
qv	-9.54978
rg	-9.5501
yi	-9.55081
▁terrorists	-9.55102
▁soon	-9.55103
free	-9.55121
xn	-9.55143
▁terror	-9.55199
this	-9.55202
▁lie	-9.55343
▁rock	-9.55398
89	-9.55399
but	-9.55401
zn	-9.55465
ns	-9.55477
06	-9.55481
▁flag	-9.55563
▁jobs	-9.5557
▁mad	-9.55605
ism	-9.55621
70	-9.55663
▁sheriff	-9.55803
xg	-9.56118
▁university	-9.56278
fp	-9.5632
51	-9.56331
chicago	-9.56368
60	-9.56386
mv	-9.56389
▁single	-9.5649
xb	-9.56528
▁victim	-9.56538
wy	-9.56679
fh	-9.56759
31	-9.56767
▁hold	-9.56773
▁mccain	-9.56802
76	-9.56807
mq	-9.56847
▁learn	-9.56862
▁caught	-9.56887
74	-9.56892
xv	-9.56894
rap	-9.56965
vd	-9.57
▁inside	-9.57001
fv	-9.57032
she	-9.57073
▁yourself	-9.57126
▁forget	-9.57137
▁phone	-9.57222
▁candidate	-9.57344
▁chance	-9.57401
yz	-9.57438
▁voting	-9.57484
▁parents	-9.57493
▁wanna	-9.57567
▁ago	-9.57569
zc	-9.57582
▁terrorist	-9.5766
cz	-9.57683
▁hey	-9.57827
cx	-9.5787
law	-9.57973
▁fatal	-9.57984
jy	-9.5807
▁study	-9.58089
▁others	-9.58113
▁fact	-9.58114
dz	-9.58138
▁question	-9.58147
fq	-9.58201
fk	-9.58223
▁gives	-9.58249
qh	-9.58258
red	-9.58263
▁gov	-9.58286
▁george	-9.58365
▁general	-9.58447
zx	-9.58484
iy	-9.58523
▁assault	-9.58588
▁strong	-9.58649
▁share	-9.58775
▁release	-9.58785
▁died	-9.58786
▁fans	-9.58861
iu	-9.58894
▁die	-9.58898
hx	-9.58923
oy	-9.58928
pro	-9.59024
wz	-9.5908
▁seek	-9.59135
ana	-9.59227
ful	-9.59346
91	-9.59371
▁11	-9.59384
34	-9.59471
▁movie	-9.59667
gk	-9.59672
▁cut	-9.5981
vc	-9.59872
xu	-9.5993
▁obamacare	-9.6
per	-9.60166
jx	-9.60272
▁action	-9.60301
▁birthday	-9.60527
ihate	-9.60651
87	-9.60703
▁eu	-9.60752
uu	-9.60788
▁fall	-9.60801
▁such	-9.60817
uy	-9.60825
rz	-9.60991
hj	-9.60992
47	-9.61002
xj	-9.61009
78	-9.61024
36	-9.61051
▁forces	-9.61064
wakeupamerica	-9.61122
vu	-9.6115
ive	-9.61165
▁hospital	-9.6117
xf	-9.61184
02	-9.61212
▁ass	-9.61265
gb	-9.61327
nq	-9.6136
▁train	-9.61413
▁islam	-9.61451
uq	-9.61487
topl	-9.61499
amb	-9.615
▁turkey	-9.6151
▁whole	-9.6151
fj	-9.61597
▁final	-9.61604
?'	-9.61735
▁fat	-9.61743
▁hits	-9.618
vf	-9.61843
65	-9.6191
▁class	-9.61927
▁hurt	-9.61927
vl	-9.62158
kx	-9.62208
▁search	-9.62212
▁trade	-9.6225
▁song	-9.62315
live	-9.62434
09	-9.62519
▁went	-9.62538
48	-9.62627
gj	-9.62669
▁guns	-9.62679
pv	-9.62693
qn	-9.62868
▁calling	-9.62918
▁daily	-9.63
cp	-9.63037
iw	-9.63164
▁mike	-9.63259
▁nuclear	-9.63374
46	-9.63385
▁african	-9.63394
▁leaders	-9.63465
▁nyc	-9.63511
▁return	-9.6354
lin	-9.6366
iz	-9.63664
oi	-9.63675
qy	-9.63696
▁instead	-9.63858
xw	-9.63859
qc	-9.63976
▁15	-9.64131
▁tells	-9.64206
▁word	-9.64225
▁nation	-9.64259
▁comes	-9.64284
▁gas	-9.64337
our	-9.64377
49	-9.64481
▁realdonaldtrump	-9.64483
▁tweets	-9.64501
▁understand	-9.64587
fz	-9.64603
gopdebate	-9.64681
qp	-9.64729
wg	-9.64896
▁secret	-9.64905
▁stocks	-9.64909
92	-9.64934
72	-9.65016
that	-9.65039
▁putin	-9.65126
79	-9.65157
zp	-9.65191
jz	-9.6526
zr	-9.65308
bx	-9.65373
texas	-9.65378
▁sick	-9.65386
si	-9.65391
pq	-9.65405
chris	-9.65582
▁else	-9.65584
zj	-9.65623
uj	-9.65683
ation	-9.65688
pw	-9.65769
chi	-9.6579
foxnews	-9.65865
kq	-9.65968
what	-9.66004
71	-9.66036
▁bus	-9.66049
wj	-9.66083
▁battle	-9.66132
04	-9.66183
67	-9.66192
63	-9.6622
▁100	-9.66255
sanjose	-9.6626
▁schools	-9.66296
▁gave	-9.66326
▁ft	-9.66433
emx	-9.6645
37	-9.665
▁usa	-9.66507
gv	-9.66608
▁fighting	-9.66812
ql	-9.66815
▁issue	-9.66843
84	-9.66899
▁following	-9.66901
▁due	-9.67029
▁released	-9.67045
▁hand	-9.67066
kochfarms	-9.67078
den	-9.67078
ym	-9.67091
john	-9.67098
zh	-9.67134
▁worst	-9.67196
▁arizona	-9.67238
demndebate	-9.67295
▁mexico	-9.67311
▁sexual	-9.67406
▁paid	-9.67433
▁criminal	-9.67596
86	-9.67606
▁miami	-9.67657
56	-9.67664
54	-9.67681
▁monday	-9.67717
03	-9.67736
ou	-9.67751
lq	-9.67837
▁ahead	-9.67849
▁members	-9.67887
▁david	-9.67998
wx	-9.68083
vz	-9.68094
▁green	-9.68122
zg	-9.68189
58	-9.68212
uf	-9.68265
▁hours	-9.68274
41	-9.68294
ner	-9.68336
▁bar	-9.68601
▁climate	-9.68608
▁late	-9.68691
73	-9.68701
▁worth	-9.68836
hz	-9.68844
▁church	-9.68875
▁policy	-9.68921
ub	-9.6896
cq	-9.69159
▁billion	-9.69181
zq	-9.69191
▁cover	-9.6933
▁watching	-9.69513
82	-9.69518
▁supreme	-9.69612
▁rape	-9.69629
52	-9.6974
▁sunday	-9.69992
men	-9.69999
▁town	-9.70039
lx	-9.7009
off	-9.7044
▁guys	-9.70531
▁trust	-9.70552
sc	-9.7067
ment	-9.70689
64	-9.70767
islamkills	-9.7077
▁gay	-9.70777
▁art	-9.70812
▁seattle	-9.70964
▁sad	-9.70992
▁five	-9.71031
▁ryan	-9.71063
▁rep	-9.71178
▁small	-9.71197
▁push	-9.71241
57	-9.71286
ash	-9.71348
vg	-9.71534
ug	-9.71535
bs	-9.71675
▁store	-9.71744
▁ok	-9.7175
▁stupid	-9.72009
▁bush	-9.72046
▁storm	-9.72072
▁maybe	-9.72264
blm	-9.72389
▁test	-9.72571
get	-9.72647
▁respect	-9.72799
59	-9.72824
▁30	-9.72918
39	-9.73066
▁joe	-9.73088
qj	-9.73144
▁huge	-9.73169
zk	-9.73206
▁senator	-9.73302
▁mark	-9.73333
▁issues	-9.73358
qz	-9.73396
▁hair	-9.73529
syria	-9.73538
▁voted	-9.73613
▁room	-9.73683
▁budget	-9.73747
xz	-9.73858
▁coach	-9.73952
▁each	-9.74018
▁perfect	-9.74047
▁cancer	-9.7405
83	-9.74098
▁2015	-9.74114
▁defense	-9.74141
▁beach	-9.74206
▁wish	-9.74236
▁important	-9.74465
▁emails	-9.7448
qf	-9.74516
zw	-9.74621
▁few	-9.74642
▁rules	-9.7466
▁started	-9.74705
▁massive	-9.74875
▁building	-9.74884
▁chris	-9.74921
jq	-9.74925
▁questions	-9.75031
▁sorry	-9.75092
▁probe	-9.75146
▁bowl	-9.75211
▁daughter	-9.75215
kz	-9.75445
▁weather	-9.75471
with	-9.75484
81	-9.75516
▁minutes	-9.75663
money	-9.75696
▁send	-9.75743
▁asked	-9.75776
▁review	-9.75801
▁months	-9.76013
wq	-9.76029
▁message	-9.76089
▁shut	-9.76193
ron	-9.76264
zv	-9.76346
▁sleep	-9.76412
▁wake	-9.765
▁response	-9.76538
▁low	-9.76717
▁50	-9.76737
▁less	-9.7677
53	-9.76792
▁bay	-9.76798
▁front	-9.77107
▁claim	-9.77108
▁dad	-9.77299
how	-9.77426
▁middle	-9.77449
▁travel	-9.77512
▁rest	-9.77513
▁company	-9.77519
▁planned	-9.77566
back	-9.77576
▁player	-9.77679
▁crisis	-9.77833
▁half	-9.77911
▁walk	-9.7803
nyc	-9.78036
▁favorite	-9.78109
43	-9.7815
ger	-9.78186
now	-9.78291
▁came	-9.78296
▁director	-9.78306
wood	-9.78319
▁19	-9.78352
▁station	-9.78425
▁moment	-9.78469
▁happened	-9.78502
▁lies	-9.78602
her	-9.78632
▁plane	-9.7864
▁traitor	-9.78645
▁vegas	-9.7865
▁pick	-9.78797
▁oil	-9.78881
`	-9.78942
mike	-9.78951
demdebate	-9.79019
▁tried	-9.79047
▁players	-9.79108
▁dnc	-9.7922
▁lawsuit	-9.79251
▁airport	-9.7941
▁pretty	-9.79501
▁mass	-9.79619
▁cat	-9.79805
mon	-9.79819
line	-9.80046
▁program	-9.80081
100	-9.80184
▁funny	-9.80303
▁board	-9.80314
▁❤	-9.80422
fire	-9.80439
▁light	-9.80485
▁continue	-9.80528
▁means	-9.8058
▁thousands	-9.80586
▁brown	-9.80644
hiphop	-9.807
▁sessions	-9.80777
vx	-9.8079
qx	-9.80918
▁kim	-9.81042
uv	-9.81098
will	-9.81137
▁#2016	-9.81146
▁saturday	-9.8117
▁ben	-9.81306
▁hurricane	-9.81348
▁patriots	-9.81348
▁step	-9.81397
led	-9.81458
!"	-9.8148
▁leads	-9.81551
▁hollywood	-9.8158
xq	-9.81652
▁month	-9.81675
▁interview	-9.81741
▁track	-9.81801
▁anthem	-9.81898
▁democratic	-9.81926
▁armed	-9.82099
▁traffic	-9.82184
▁soros	-9.82184
▁crazy	-9.82208
▁teacher	-9.82215
ray	-9.82275
▁conservative	-9.82414
js	-9.82472
▁israel	-9.82493
2017	-9.82512
▁film	-9.82536
61	-9.82636
▁short	-9.8271
trumptrain	-9.82772
▁ice	-9.82778
▁faces	-9.82826
▁fear	-9.8291
ell	-9.82956
▁fan	-9.8308
ks	-9.83126
war	-9.83176
▁kind	-9.83221
▁poor	-9.83255
▁hashtag	-9.83277
hfw	-9.8335
▁wonder	-9.83879
▁camp	-9.83921
62	-9.84069
▁abuse	-9.841
▁corruption	-9.84125
▁games	-9.84177
▁michigan	-9.84199
▁foreign	-9.84219
der	-9.84223
your	-9.84247
ben	-9.84282
like	-9.84347
▁idea	-9.84404
▁himself	-9.84406
todolist	-9.84479
car	-9.84679
dan	-9.84716
▁hall	-9.84784
▁honor	-9.84819
▁google	-9.84868
beforechristmas	-9.85028
blacktwitter	-9.85211
▁lying	-9.85228
▁among	-9.85315
▁folks	-9.85325
jgtv	-9.8533
▁18	-9.85394
▁across	-9.85402
▁myself	-9.85424
can	-9.85461
▁~	-9.85563
▁summer	-9.8569
▁giving	-9.85737
sw	-9.85754
▁double	-9.85798
▁suicide	-9.85811
▁guess	-9.85955
▁louis	-9.85956
▁24	-9.85997
▁amid	-9.86111
▁proud	-9.86187
vq	-9.86226
▁department	-9.86426
▁deadly	-9.86453
▁strike	-9.86515
▁key	-9.86543
▁paris	-9.86574
▁legal	-9.86612
▁minister	-9.86636
▁louisiana	-9.86643
▁per	-9.86674
▁europe	-9.86686
▁diet	-9.8678
▁patriot	-9.86865
▁sea	-9.86927
▁build	-9.86975
ice	-9.87021
kpxt	-9.87031
▁french	-9.87035
qq	-9.87056
▁series	-9.87077
bad	-9.87109
▁+	-9.87226
▁brother	-9.87242
turkey	-9.87576
▁club	-9.87579
▁couple	-9.87591
▁heard	-9.87654
miss	-9.87661
▁almost	-9.87674
▁scandal	-9.87889
▁attorney	-9.87917
▁jeff	-9.8798
ster	-9.88081
▁council	-9.88177
▁evidence	-9.88196
▁aren	-9.88219
▁dream	-9.88237
▁hands	-9.88264
▁account	-9.88297
▁click	-9.88317
▁wasn	-9.88406
est	-9.88414
▁email	-9.88538
▁biggest	-9.88571
▁winning	-9.88738
▁civil	-9.88813
▁saw	-9.88872
▁speak	-9.88898
good	-9.89228
▁houston	-9.8933
❤	-9.89647
▁global	-9.89657
▁workers	-9.89659
sen	-9.89696
ant	-9.89783
▁voter	-9.89812
▁warriors	-9.89898
▁drive	-9.8992
▁rich	-9.89922
▁gone	-9.90009
▁words	-9.90092
ham	-9.90106
▁phoenix	-9.90315
▁held	-9.90721
▁movement	-9.90731
▁market	-9.9085
▁living	-9.91043
fitness	-9.91062
▁happen	-9.91161
▁female	-9.91176
▁terrorism	-9.91279
▁union	-9.91363
▁robbery	-9.91419
▁fucking	-9.91543
▁alert	-9.91743
▁tour	-9.9175
right	-9.9186
▁yeah	-9.92033
end	-9.92107
▁course	-9.9212
▁carolina	-9.92174
▁probably	-9.92291
gen	-9.92339
ella	-9.92416
▁cities	-9.9247
kay	-9.92558
▁welcome	-9.92624
▁votes	-9.92876
bar	-9.9295
▁2020	-9.93007
▁kid	-9.93065
▁deep	-9.93103
police	-9.93411
russia	-9.93417
cat	-9.9352
▁gotta	-9.93527
▁straight	-9.93665
▁$	-9.93743
▁clear	-9.93786
▁internet	-9.9381
▁lawmakers	-9.94153
▁??	-9.94306
▁lynch	-9.94468
again	-9.94508
lil	-9.94606
▁strikes	-9.94631
▁reported	-9.94649
▁apple	-9.9465
▁drop	-9.94709
▁though	-9.94897
▁album	-9.94948
▁investigate	-9.9498
mac	-9.94981
▁protests	-9.94998
▁ya	-9.9513
▁ain	-9.95142
▁truck	-9.95184
▁fitness	-9.95211
▁investigating	-9.95346
▁ted	-9.95623
uz	-9.95624
▁different	-9.95732
▁tuesday	-9.95762
▁forced	-9.95864
▁rise	-9.95912
▁block	-9.95974
▁spend	-9.96016
▁despite	-9.96028
▁jose	-9.96153
▁detroit	-9.96167
over	-9.96212
▁france	-9.9624
official	-9.96342
bee	-9.96375
ass	-9.96414
joe	-9.9642
head	-9.96432
baby	-9.96455
vote	-9.96455
▁charge	-9.96473
▁project	-9.96506
▁nearly	-9.96548
▁cool	-9.96595
▁likely	-9.96611
▁stolen	-9.96623
▁statement	-9.9664
ann	-9.96651
house	-9.96748
▁funding	-9.96864
▁da	-9.96931
▁update	-9.96938
▁destroy	-9.96938
▁pass	-9.96954
▁later	-9.96986
▁eyes	-9.97062
▁residents	-9.97141
▁doj	-9.97174
han	-9.97379
▁saudi	-9.97481
anna	-9.97599
▁non	-9.97721
rose	-9.97729
well	-9.97756
▁blue	-9.97812
▁illegals	-9.97905
sha	-9.97933
▁district	-9.97938
▁uk	-9.9798
▁iraq	-9.98112
ari	-9.9812
▁millions	-9.98156
age	-9.98162
?!	-9.98265
▁age	-9.98323
▁exactly	-9.98414
▁continues	-9.98415
▁dc	-9.98528
▁taken	-9.98564
▁blame	-9.9883
▁risk	-9.98862
▁ceo	-9.989
▁comments	-9.98914
min	-9.98937
▁number	-9.99114
▁rain	-9.99205
▁cash	-9.99285
+	-9.99389
?"	-9.99465
▁virginia	-9.99525
▁supporter	-9.99541
▁forward	-9.99577
mer	-9.99578
▁defend	-9.99682
ford	-9.99683
▁wouldn	-9.99846
▁artist	-9.99869
▁suspected	-9.99956
▁administration	-10
▁rice	-10.0005
ngsyoucantignore	-10.0007
▁dear	-10.0012
>	-10.0012
▁laws	-10.0021
▁knew	-10.0021
▁families	-10.0023
ville	-10.0026
▁sentenced	-10.0039
reuters	-10.0051
▁violent	-10.0064
ken	-10.0085
▁snow	-10.009
▁lsu	-10.0095
▁gold	-10.0097
▁reveals	-10.0098
▁candidates	-10.0098
▁jersey	-10.01
▁rule	-10.0102
▁dis	-10.0108
follow	-10.0112
show	-10.0114
▁francisco	-10.0124
▁expected	-10.013
▁details	-10.0135
▁thinking	-10.0143
▁fast	-10.0145
▁space	-10.0152
▁robert	-10.0157
▁leaves	-10.016
jud	-10.0162
ler	-10.0164
▁longer	-10.0167
nick	-10.019
ally	-10.0191
▁medical	-10.0206
▁lady	-10.0212
better	-10.0215
▁host	-10.0217
▁germany	-10.0218
iva	-10.0225
queen	-10.0229
▁sent	-10.0251
ali	-10.0271
▁shooter	-10.0276
james	-10.0276
ary	-10.0307
fan	-10.0309
▁economy	-10.031
▁slams	-10.031
team	-10.0313
▁lawyer	-10.0322
mark	-10.0335
▁stock	-10.0353
▁victory	-10.0358
staywoke	-10.0363
▁returns	-10.0379
▁pull	-10.0379
▁role	-10.0381
▁safety	-10.0387
▁kelly	-10.0397
▁named	-10.0406
▁warns	-10.0415
▁worse	-10.0428
▁signs	-10.0429
▁six	-10.0439
ent	-10.044
▁hill	-10.045
▁results	-10.0461
▁steve	-10.0463
sam	-10.0464
▁homeless	-10.0467
▁education	-10.0469
▁cold	-10.0475
▁exposed	-10.0486
sf	-10.0489
▁gym	-10.049
▁citizens	-10.0491
are	-10.05
gs	-10.0522
▁base	-10.0525
marie	-10.0529
▁grand	-10.053
▁followers	-10.0542
▁warning	-10.0544
▁brain	-10.0551
▁exclusive	-10.0551
▁color	-10.0556
▁loans	-10.0559
▁river	-10.0565
▁thinks	-10.057
gar	-10.0574
election	-10.0585
▁answer	-10.0598
soundcloud	-10.0606
boo	-10.0619
▁lake	-10.0621
ize	-10.0622
▁cannot	-10.0622
▁sun	-10.0632
▁failed	-10.0636
▁shoot	-10.0643
ble	-10.0646
stop	-10.0648
▁omg	-10.0652
▁killer	-10.0652
state	-10.0664
▁demand	-10.0665
eli	-10.0667
▁radio	-10.0683
▁entire	-10.0683
???	-10.0684
▁oakland	-10.069
▁santa	-10.0691
jan	-10.0693
▁carson	-10.0699
▁decision	-10.0705
see	-10.0706
▁immigrants	-10.0727
▁data	-10.0728
▁title	-10.0732
▁msm	-10.0733
▁fatally	-10.0735
▁husband	-10.0736
▁stage	-10.0748
▁fair	-10.0752
air	-10.0758
que	-10.0774
▁13	-10.0779
▁event	-10.078
▁finds	-10.0783
ara	-10.0793
▁reality	-10.0794
mom	-10.0799
▁dr	-10.0805
david	-10.0807
▁needed	-10.0808
▁owner	-10.0822
radio	-10.0825
▁picture	-10.0825
who	-10.0829
▁hearing	-10.0841
▁trip	-10.0851
▁starts	-10.0867
▁bitch	-10.0875
ls	-10.0876
▁problems	-10.0877
▁missouri	-10.0884
▁veterans	-10.0888
ade	-10.0896
▁dallas	-10.0897
▁evil	-10.0897
▁german	-10.091
▁turns	-10.091
▁avoid	-10.0925
▁target	-10.0935
▁wounded	-10.0942
▁third	-10.0945
when	-10.0955
▁telling	-10.0969
ball	-10.0982
▁hotel	-10.0983
▁london	-10.0999
▁tries	-10.1011
▁foundation	-10.1012
ous	-10.1017
▁nba	-10.102
▁nobody	-10.102
▁japan	-10.1022
▁holiday	-10.1028
▁knows	-10.1028
dee	-10.1033
▁drink	-10.1038
▁jackson	-10.1043
▁central	-10.1053
▁17	-10.1053
▁groups	-10.1058
▁access	-10.1074
▁born	-10.1078
▁wear	-10.1079
▁$2	-10.108
sb	-10.1093
foke	-10.1101
▁view	-10.1108
▁enjoy	-10.1118
▁thursday	-10.1121
▁eating	-10.1127
▁agenda	-10.1131
more	-10.1138
hs	-10.114
▁feeling	-10.1141
▁wednesday	-10.115
▁announces	-10.1152
▁ha	-10.1159
▁alone	-10.1168
▁rubio	-10.1171
▁stuff	-10.1174
▁sometimes	-10.1187
blue	-10.119
▁jesus	-10.1194
▁literally	-10.1195
▁atlanta	-10.1208
▁pm	-10.121
▁hedgebz	-10.1213
▁▶@	-10.1221
▁private	-10.1237
▁staff	-10.1252
▁ends	-10.1253
▁awesome	-10.1254
make	-10.1262
alex	-10.1265
imo	-10.1266
▁themselves	-10.127
▁primary	-10.1272
president	-10.1273
smith	-10.1274
kim	-10.128
▁sell	-10.128
mustbebanned	-10.1285
▁remove	-10.1292
▁powerful	-10.1294
why	-10.1305
mad	-10.132
▁scott	-10.1327
▁=	-10.1331
▁member	-10.1331
▁challenge	-10.1339
▁crowd	-10.1346
▁attention	-10.1348
▁cup	-10.1353
▁bridge	-10.1353
▁pleads	-10.137
getdepressedwhen	-10.1377
▁losing	-10.1379
▁14	-10.138
▁tired	-10.1382
▁dangerous	-10.1387
down	-10.1388
▁ground	-10.1403
▁training	-10.1404
clinton	-10.1405
▁sale	-10.1408
reason	-10.1412
▁admits	-10.1413
▁chinese	-10.1417
▁broke	-10.1428
▁energy	-10.1429
sandiego	-10.1439
▁eric	-10.1448
▁cost	-10.1459
jack	-10.146
▁clean	-10.1467
▁beats	-10.1469
▁grow	-10.1472
because	-10.1477
▁july	-10.1478
policebrutality	-10.148
▁personal	-10.1482
gun	-10.1485
▁wild	-10.1485
fox	-10.1488
▁lil	-10.1492
▁site	-10.1495
▁blood	-10.1497
michael	-10.1504
▁create	-10.1511
media	-10.1517
▁pelosi	-10.1521
▁ny	-10.1527
▁culture	-10.1527
▁card	-10.1528
▁christian	-10.153
▁harvey	-10.1531
▁guard	-10.1544
▁raise	-10.155
▁seriously	-10.1554
▁choice	-10.1555
▁source	-10.1561
ard	-10.1565
▁sense	-10.1568
▁happens	-10.1573
!!!!	-10.1574
▁cuts	-10.1576
california	-10.1576
▁ties	-10.1577
side	-10.1578
▁british	-10.1583
▁ur	-10.1589
pokemongobecause	-10.1591
▁sales	-10.16
▁date	-10.1602
▁kkk	-10.1602
▁chelsea	-10.1606
▁canada	-10.1607
▁lord	-10.1616
power	-10.1629
▁waiting	-10.1631
▁michelle	-10.164
▁accident	-10.1653
▁alive	-10.1672
▁land	-10.1677
▁info	-10.1681
quote	-10.1687
▁seems	-10.1691
▁secretary	-10.1703
▁credit	-10.1704
town	-10.1719
▁celebrate	-10.1725
▁bless	-10.1728
guy	-10.1737
▁asks	-10.1742
▁drops	-10.1744
▁common	-10.1749
▁va	-10.175
▁falls	-10.1755
▁multiple	-10.1771
▁reporter	-10.1786
▁repeal	-10.1792
wisconsin	-10.1792
▁defends	-10.1793
▁boss	-10.1795
▁plays	-10.1803
mari	-10.1804
▁cute	-10.1807
▁pence	-10.1807
▁orders	-10.181
▁wearing	-10.181
matt	-10.1811
▁bid	-10.1815
ney	-10.1818
paul	-10.1821
▁draft	-10.1834
ter	-10.1834
▁success	-10.1835
▁facts	-10.1839
▁drugs	-10.1849
▁wtf	-10.1851
aaa	-10.1854
politicians	-10.1854
ever	-10.1863
young	-10.1868
▁epic	-10.1868
▁round	-10.1872
▁wh	-10.1877
ped	-10.1894
▁offers	-10.1904
▁turkish	-10.1914
▁martin	-10.193
▁haven	-10.1935
▁jury	-10.1941
▁abortion	-10.1943
▁hero	-10.1944
▁constitution	-10.1948
▁bro	-10.1951
▁realize	-10.1955
field	-10.1962
▁marijuana	-10.197
▁marriage	-10.1975
▁earth	-10.1979
▁debt	-10.1982
▁chase	-10.1982
▁busted	-10.1994
▁serious	-10.2001
book	-10.2009
▁sources	-10.2029
▁lmao	-10.2034
▁price	-10.2035
▁capital	-10.2039
tic	-10.2042
▁along	-10.2046
▁emergency	-10.2047
nation	-10.2051
ros	-10.2062
▁fund	-10.2065
they	-10.2066
truth	-10.2066
angel	-10.2074
▁gang	-10.2075
▁pray	-10.2087
▁debalwaystrump	-10.2088
▁im	-10.209
▁career	-10.2098
▁voice	-10.2099
▁statue	-10.2105
▁sean	-10.2106
ryan	-10.2115
▁aid	-10.2122
▁taxes	-10.2129
▁flight	-10.2131
▁link	-10.2137
kid	-10.2142
▁conference	-10.2156
let	-10.2159
▁reach	-10.216
anne	-10.2172
▁weinstein	-10.2175
▁25	-10.2177
▁exposes	-10.218
▁mr	-10.2188
▁moore	-10.219
▁corrupt	-10.219
▁alleged	-10.2201
▁kasich	-10.2207
▁confederate	-10.2211
▁van	-10.2214
▁island	-10.2215
▁yesterday	-10.2217
take	-10.2228
ker	-10.2237
▁several	-10.2255
▁con	-10.2255
▁troops	-10.2258
vegasgopdebate	-10.2259
▁🇺🇸	-10.226
saa	-10.2263
▁stories	-10.2275
che	-10.2282
era	-10.2291
▁finance	-10.2293
▁jones	-10.2298
▁iowa	-10.2303
dar	-10.2305
die	-10.2315
▁countries	-10.2323
dis	-10.2323
tion	-10.2328
▁dance	-10.2328
▁attacked	-10.233
▁apartment	-10.2342
▁offer	-10.2348
▁✊	-10.235
win	-10.2355
▁asking	-10.2356
▁heat	-10.2357
▁leaving	-10.2361
▁joke	-10.2371
▁coast	-10.2372
▁georgia	-10.2377
jones	-10.2386
▁standing	-10.2389
▁couldn	-10.2398
sky	-10.24
brussels	-10.2403
▁magazine	-10.2405
gal	-10.2407
▁birth	-10.2408
▁convicted	-10.2416
▁crashes	-10.2423
job	-10.2428
▁dogs	-10.2431
kin	-10.2433
cam	-10.2434
▁hundreds	-10.2441
▁streets	-10.2443
▁foxnews	-10.2461
▁starting	-10.2465
ite	-10.2465
▁refugee	-10.248
len	-10.2482
▁network	-10.2482
▁radical	-10.2497
tom	-10.2505
rich	-10.2508
▁box	-10.2518
▁imagine	-10.2519
▁vehicle	-10.2519
▁payday	-10.2521
▁april	-10.2525
▁piece	-10.2527
▁episode	-10.2531
har	-10.2536
▁amendment	-10.2538
▁sound	-10.254
game	-10.2543
▁boys	-10.2544
▁rose	-10.2545
▁bombshell	-10.2554
▁letter	-10.2559
▁opening	-10.2561
▁historic	-10.2561
▁crimes	-10.2563
▁thanksgiving	-10.2579
▁queen	-10.2595
▁jr	-10.2598
▁johnson	-10.2599
lady	-10.2606
▁philly	-10.2607
▁works	-10.261
▁doctor	-10.2615
nra	-10.2617
▁given	-10.2618
brown	-10.2618
▁anymore	-10.2626
green	-10.2639
▁downtown	-10.2641
val	-10.2641
▁easy	-10.2644
lyn	-10.2645
tha	-10.2653
▁greatest	-10.2654
▁changed	-10.2655
▁fix	-10.2658
▁fine	-10.2666
play	-10.2677
▁drunk	-10.2678
▁alabama	-10.2686
▁launch	-10.2692
▁add	-10.2708
acronym	-10.2711
▁focus	-10.2717
▁elected	-10.272
▁consider	-10.2726
▁coffee	-10.2726
▁percent	-10.273
▁los	-10.2736
▁reform	-10.2738
▁names	-10.2746
▁weeks	-10.275
▁surprise	-10.2759
▁eye	-10.2765
rock	-10.2774
▁migrants	-10.2788
▁kaepernick	-10.2789
neverhillary	-10.2792
▁speaks	-10.2798
▁prince	-10.2812
▁soldiers	-10.2817
city	-10.282
deb	-10.282
▁destroyed	-10.2829
mal	-10.2829
▁bed	-10.2832
▁sen	-10.2832
▁16	-10.2833
▁closed	-10.2837
▁begin	-10.2849
prob	-10.285
▁pope	-10.2852
▁jim	-10.2856
▁executive	-10.2857
▁rather	-10.2864
▁moving	-10.2874
▁hour	-10.2882
▁veteran	-10.2883
▁pittsburgh	-10.2891
▁warren	-10.2892
▁tough	-10.2897
▁stabbing	-10.2902
▁nbc	-10.2907
▁boost	-10.2913
▁gift	-10.2922
▁allow	-10.2926
▁smart	-10.293
▁begins	-10.2935
ste	-10.2943
▁authorities	-10.2947
▁league	-10.2948
▁feat	-10.2956
▁williams	-10.2963
▁discuss	-10.2963
kar	-10.2963
fake	-10.2966
▁$5	-10.2974
▁breaks	-10.2974
lan	-10.2977
▁southern	-10.2985
▁zika	-10.2985
▁either	-10.2988
cho	-10.2988
▁goal	-10.2989
ier	-10.2992
▁okay	-10.2993
▁allowed	-10.2997
interpretations	-10.3002
true	-10.3006
cbs	-10.3006
▁shame	-10.3007
▁turned	-10.3015
▁changes	-10.3021
▁skin	-10.3028
▁@__	-10.303
istartcryingwhen	-10.3033
▁happening	-10.3037
▁foke	-10.3044
party	-10.3053
▁rewind	-10.3066
lis	-10.3074
▁deserve	-10.3077
san	-10.3081
van	-10.3086
▁difference	-10.3087
▁transgender	-10.3088
▁deputy	-10.3088
racism	-10.31
▁interesting	-10.3103
key	-10.3104
ten	-10.3107
ward	-10.3107
▁driving	-10.3117
women	-10.3122
▁brand	-10.3128
▁saints	-10.3131
;&	-10.3131
▁shop	-10.3133
▁ten	-10.3133
▁winter	-10.3144
chu	-10.3144
▁ways	-10.3146
▁refuses	-10.3151
sta	-10.3153
▁award	-10.3159
▁catch	-10.316
▁faith	-10.3162
▁basketball	-10.3173
des	-10.3176
▁website	-10.3181
▁lied	-10.3183
▁opposition	-10.3185
▁presidency	-10.3186
▁spread	-10.3187
▁valley	-10.3187
▁field	-10.3196
sarah	-10.3214
▁mall	-10.3216
▁releases	-10.3219
▁activist	-10.3228
▁proof	-10.3229
▁weapons	-10.3243
▁comment	-10.3243
▁parenthood	-10.3245
▁created	-10.3246
there	-10.3246
twitter	-10.3255
▁suspects	-10.3255
▁pizza	-10.3263
▁cubs	-10.3263
▁numbers	-10.3264
▁urges	-10.3276
▁helping	-10.3285
via	-10.3296
▁sides	-10.3296
▁sweet	-10.3297
▁committee	-10.3301
giftideasfor	-10.3305
cher	-10.3307
elle	-10.3314
▁mis	-10.3316
national	-10.3326
▁ball	-10.3332
▁africa	-10.3337
▁boom	-10.3345
▁sit	-10.3357
▁flint	-10.3358
▁smith	-10.3367
▁suit	-10.337
science	-10.3376
mag	-10.3383
▁reminder	-10.339
ating	-10.339
▁replace	-10.3394
ated	-10.3397
▁cars	-10.34
▁missile	-10.3404
▁maryland	-10.3408
▁panel	-10.342
mas	-10.343
▁complete	-10.3433
qs	-10.3441
🇺🇸	-10.3442
▁sounds	-10.3445
best	-10.3445
—	-10.3446
▁mine	-10.3452
▁reading	-10.3455
▁involved	-10.3464
▁declares	-10.3469
▁barack	-10.3472
▁opens	-10.3477
▁term	-10.3483
▁threats	-10.3492
▁selling	-10.3502
shooting	-10.3503
▁absolutely	-10.3508
▁scene	-10.3508
▁sanctuary	-10.351
▁blm	-10.351
▁disgusting	-10.3514
▁showing	-10.3521
▁baseball	-10.3523
▁threatens	-10.3525
hot	-10.3525
▁forever	-10.3526
▁moves	-10.3528
tweet	-10.3533
▁targeted	-10.3547
▁dinner	-10.3548
toavoidworki	-10.3561
sv	-10.3585
work	-10.3588
▁situation	-10.3595
▁cry	-10.3596
add	-10.3596
▁accounts	-10.3603
▁including	-10.3605
sex	-10.3606
▁fit	-10.3608
guns	-10.3612
ence	-10.3617
▁polls	-10.3618
▁bannon	-10.3621
app	-10.3621
taylor	-10.3624
▁level	-10.3629
▁smoke	-10.3633
low	-10.3634
▁information	-10.3635
▁promotion	-10.3638
▁spring	-10.3642
▁nypd	-10.365
https	-10.3656
▁economic	-10.3663
kat	-10.3666
▁religion	-10.3669
▁forecast	-10.3672
rep	-10.3674
▁pain	-10.3685
ven	-10.3686
talk	-10.3694
▁susan	-10.3696
▁blast	-10.3708
▁trash	-10.3711
usfa	-10.3726
▁stephen	-10.3737
rip	-10.3738
▁restaurant	-10.3738
▁convention	-10.3743
▁seeing	-10.3751
▁allegedly	-10.3764
▁points	-10.3768
▁dick	-10.3771
bal	-10.3779
▁explain	-10.378
▁international	-10.3782
▁bit	-10.3784
▁tickets	-10.3791
▁experience	-10.3799
▁burn	-10.381
▁nigga	-10.3815
patriot	-10.3838
▁sold	-10.3838
ita	-10.3845
▁records	-10.3846
bri	-10.3854
eee	-10.3859
▁tree	-10.3861
debatetopics	-10.3868
▁trouble	-10.3874
▁walking	-10.3877
ber	-10.3888
abi	-10.3889
▁truly	-10.3891
night	-10.3893
▁ride	-10.3895
▁spending	-10.3896
▁puts	-10.3905
▁afraid	-10.391
▁mcmaster	-10.3918
▁diego	-10.3924
▁expect	-10.3926
▁britain	-10.393
teaparty	-10.3931
▁activists	-10.3932
▁100%	-10.3933
▁ruling	-10.3948
▁agency	-10.3948
▁main	-10.3949
▁gunman	-10.3951
▁coverage	-10.3953
▁demands	-10.3953
fer	-10.3956
▁rr	-10.3963
▁door	-10.3965
lynn	-10.398
▁festival	-10.3989
jen	-10.3993
▁paying	-10.4001
▁western	-10.4007
▁soul	-10.402
▁shootings	-10.4026
super	-10.4032
hill	-10.4038
watch	-10.4043
iii	-10.4057
▁address	-10.4062
▁mental	-10.4079
▁boston	-10.4079
nic	-10.4081
▁inauguration	-10.4081
long	-10.4088
dog	-10.4101
▁shouldn	-10.4103
seeks	-10.4103
ration	-10.411
▁memorial	-10.4121
▁popular	-10.4124
▁porn	-10.4127
abc	-10.4132
justice	-10.4136
▁rate	-10.4139
▁false	-10.4147
care	-10.4147
mfbjij	-10.4149
▁silent	-10.415
▁lack	-10.4152
▁science	-10.4153
▁beer	-10.4154
rob	-10.4155
▁uber	-10.4155
▁cia	-10.4158
▁struck	-10.4158
▁silence	-10.4158
▁angry	-10.416
ized	-10.4166
▁large	-10.4178
anti	-10.4178
▁dumb	-10.4183
▁india	-10.4183
rae	-10.4183
▁😂	-10.4184
▁politicians	-10.4187
aka	-10.4194
▁prove	-10.4196
bro	-10.4197
▁bombing	-10.421
▁denver	-10.4212
too	-10.4221
▁conservatives	-10.4221
▁pa	-10.4225
▁remain	-10.4231
▁choose	-10.4237
secondhandgifts	-10.4241
bag	-10.4246
▁launches	-10.425
▁male	-10.4259
▁blow	-10.426
▁israeli	-10.4269
▁weird	-10.427
mor	-10.4281
▁el	-10.4282
▁sister	-10.4291
▁defeat	-10.4306
▁simple	-10.4308
rod	-10.4309
▁helps	-10.4319
▁actor	-10.432
▁tim	-10.4322
bur	-10.4324
▁$3	-10.4329
del	-10.433
▁reasons	-10.433
cap	-10.4331
stopthegop	-10.4344
prayers	-10.4344
▁failure	-10.4353
▁page	-10.4354
▁available	-10.4359
▁approval	-10.4364
▁totally	-10.4364
▁companies	-10.4364
trumpforpresiden	-10.4365
aleppo	-10.4369
cia	-10.4369
talibkweli	-10.437
▁angeles	-10.4382
▁heights	-10.4391
sq	-10.4392
▁wars	-10.4395
▁intelligence	-10.4395
▁merkel	-10.44
▁supporting	-10.4404
▁interest	-10.4404
lie	-10.4405
stlouis	-10.441
gay	-10.4418
par	-10.4421
▁rip	-10.4432
▁pipeline	-10.4441
tedcruz	-10.4442
▁thomas	-10.4442
kah	-10.4451
only	-10.446
▁bb	-10.4461
russian	-10.4461
▁elections	-10.4465
▁homicide	-10.4469
ang	-10.4481
bel	-10.4489
muslim	-10.4494
▁slow	-10.4497
▁tune	-10.4498
ross	-10.4506
▁quick	-10.4511
▁cross	-10.4514
▁cast	-10.4516
▁dark	-10.4517
▁golf	-10.4519
▁liar	-10.452
▁kerry	-10.4526
ani	-10.454
▁brooklyn	-10.455
ill	-10.4552
▁leg	-10.4553
▁nazi	-10.4553
▁jay	-10.4556
▁suspended	-10.4556
▁brings	-10.4559
▁employee	-10.4567
thereal	-10.457
▁becomes	-10.457
▁youth	-10.4571
▁broken	-10.4574
▁melania	-10.4577
▁biden	-10.4579
▁custody	-10.458
▁throw	-10.4581
▁fires	-10.4588
hey	-10.4607
tofeelbetteri	-10.4612
▁prosecutor	-10.4613
sun	-10.4615
▁increase	-10.4616
▁tower	-10.4619
▁approved	-10.462
▁ukraine	-10.4623
▁became	-10.463
▁write	-10.4632
▁banned	-10.4633
onttellanyonebut	-10.4633
wing	-10.4634
▁navy	-10.4642
▁everybody	-10.4646
▁metro	-10.465
▁passes	-10.4651
▁fail	-10.4653
▁loved	-10.4658
say	-10.4662
▁40	-10.4662
▁attempt	-10.4667
▁june	-10.4669
cal	-10.4674
▁society	-10.469
lou	-10.4698
▁govt	-10.4703
▁count	-10.4706
▁spent	-10.4709
▁murdered	-10.4714
nfl	-10.4714
▁carry	-10.4716
▁incident	-10.4728
▁announce	-10.4731
bob	-10.4732
hard	-10.4752
usda	-10.476
light	-10.4761
▁according	-10.4761
▁books	-10.4763
▁code	-10.4773
▁helped	-10.4773
▁racial	-10.4773
▁brazil	-10.4775
iraq	-10.4777
▁sarah	-10.4779
ban	-10.4781
▁keeps	-10.4782
▁babies	-10.4789
▁whatever	-10.4799
ristmasaftermath	-10.48
pin	-10.4801
word	-10.4801
ame	-10.4813
▁total	-10.4817
hour	-10.4823
▁arrests	-10.4825
▁camera	-10.4826
pop	-10.4829
▁hunt	-10.4839
▁explosion	-10.4843
▁brought	-10.4843
people	-10.4845
▁blasts	-10.4847
▁crooked	-10.4849
▁opinion	-10.485
▁woods	-10.4853
▁extra	-10.4854
▁sues	-10.4859
▁blotter	-10.486
fly	-10.4862
mel	-10.4864
▁positive	-10.4864
▁destroys	-10.4866
makeamericagreat	-10.4871
▁shock	-10.4871
▁mississippi	-10.4874
▁stopped	-10.4875
▁wikileaks	-10.4878
ram	-10.4892
ens	-10.4894
rick	-10.4895
▁fed	-10.4897
▁putting	-10.4901
▁seat	-10.4902
▁industry	-10.4906
high	-10.491
▁firm	-10.491
▁pic	-10.4911
▁rescue	-10.4913
▁anthony	-10.4916
▁effect	-10.4922
▁roll	-10.4926
▁boycott	-10.4943
▁girlfriend	-10.4944
myoly	-10.4954
~	-10.4956
bill	-10.4961
mpicsportwouldbe	-10.497
▁mexican	-10.498
▁relationship	-10.5008
▁identified	-10.5014
▁dropped	-10.5015
soul	-10.5018
▁arms	-10.5027
▁damage	-10.5029
▁shocking	-10.5043
▁worker	-10.5049
lon	-10.5053
stopislam	-10.5054
▁impact	-10.5059
▁waters	-10.5065
▁stream	-10.5067
lol	-10.5073
▁immigrant	-10.5075
▁healthcare	-10.508
▁ma	-10.5083
▁flynn	-10.5084
▁awards	-10.5084
ance	-10.5085
▁iraqi	-10.5087
▁mo	-10.509
obamaswishlist	-10.5092
pay	-10.5093
▁brexit	-10.5096
▁innocent	-10.5107
▁pressure	-10.511
▁pot	-10.511
hoe	-10.511
▁accept	-10.5111
▁teens	-10.5111
sch	-10.5111
coast	-10.5112
▁lower	-10.5117
▁christie	-10.5119
▁jong	-10.5133
pac	-10.514
islam	-10.5141
▁➠	-10.5149
▁parade	-10.5153
▁resign	-10.5159
▁effort	-10.5162
101	-10.5164
▁yo	-10.517
fat	-10.5171
▁max	-10.5171
▁coup	-10.5174
bell	-10.5176
▁jimmy	-10.5176
▁sanctions	-10.5176
▁amazon	-10.5181
▁flood	-10.5183
▁hide	-10.5192
▁beating	-10.5193
hood	-10.5197
▁republic	-10.5197
oscarhasnocolor	-10.5198
▁dan	-10.5199
▁stars	-10.52
▁jack	-10.5202
▁feds	-10.5205
gov	-10.5207
▁joy	-10.5211
ise	-10.5211
▁pennsylvania	-10.5215
happy	-10.5217
itz	-10.5219
scott	-10.5223
▁professor	-10.5225
▁contest	-10.5231
▁2018	-10.5231
▁impeachment	-10.5232
▁smile	-10.5244
▁aleppo	-10.5245
▁golden	-10.5248
▁paper	-10.5248
jesus	-10.5248
nce	-10.525
▁ring	-10.5252
▁remains	-10.5252
▁greece	-10.526
▁often	-10.5264
▁pres	-10.5275
▁massacre	-10.528
ile	-10.5285
▁singer	-10.5286
ola	-10.529
▁marine	-10.5292
▁colorado	-10.5297
▁soccer	-10.5299
got	-10.5301
▁leadership	-10.5302
amy	-10.5303
little	-10.5303
shi	-10.5305
▁guide	-10.5309
▁winner	-10.531
▁shares	-10.5314
▁recent	-10.5319
▁able	-10.5328
wentwrongwhen	-10.5335
trumppence	-10.5335
▁chair	-10.5335
ace	-10.5336
▁added	-10.5346
▁events	-10.5347
▁removed	-10.5349
israel	-10.5352
great	-10.5355
▁jordan	-10.5365
nan	-10.5367
▁mcconnell	-10.5369
bernie	-10.537
▁known	-10.5376
▁illinois	-10.5389
▁arm	-10.5391
liz	-10.54
▁within	-10.5415
xyn	-10.5419
ping	-10.5424
▁rebels	-10.5437
nicole	-10.544
pri	-10.5441
▁shoots	-10.5442
▁confirms	-10.5444
eva	-10.5454
▁loses	-10.5464
emp	-10.5472
▁fly	-10.5472
▁petition	-10.5472
▁msnbc	-10.5474
▁pictures	-10.548
nodapl	-10.548
ser	-10.5481
▁youtube	-10.549
▁model	-10.5493
▁indicted	-10.5503
▁labor	-10.5503
▁holding	-10.5514
▁everyday	-10.5517
daily	-10.5537
▁higher	-10.5538
▁growing	-10.5544
▁sends	-10.5545
▁dude	-10.5545
▁legacy	-10.5546
▁ticket	-10.5549
ane	-10.555
▁text	-10.555
▁yemen	-10.5551
act	-10.5583
wan	-10.5592
fbi	-10.5595
▁lee	-10.5597
▁download	-10.5607
▁process	-10.5607
▁whether	-10.5608
▁militants	-10.5617
▁supremacist	-10.5627
ator	-10.5634
water	-10.5635
joy	-10.5649
▁heads	-10.5652
▁stabbed	-10.5655
▁trending	-10.5664
luv	-10.5666
heart	-10.5669
▁hannity	-10.5675
▁admin	-10.5683
▁homes	-10.5689
▁european	-10.5693
▁anniversary	-10.5699
▁wine	-10.5707
▁speaking	-10.5709
▁rob	-10.5709
▁stealing	-10.5714
▁thugs	-10.5723
▁liberty	-10.573
todebates	-10.5734
▁glad	-10.5735
alis	-10.5749
▁sue	-10.5756
▁crying	-10.5757
hay	-10.576
face	-10.576
ette	-10.5763
▁kick	-10.5764
skinisnotacrime	-10.5768
▁domestic	-10.577
▁sky	-10.577
▁pop	-10.5771
idr	-10.5778
▁band	-10.579
west	-10.5791
hub	-10.5796
▁closes	-10.5801
$	-10.5803
▁mess	-10.5804
▁posted	-10.5808
▁▶	-10.5809
😠	-10.5816
wife	-10.5818
▁tho	-10.5819
▁offensive	-10.5821
▁article	-10.5843
▁performance	-10.5852
▁speaker	-10.5856
▁deaths	-10.5857
fuck	-10.5866
▁hilarious	-10.5867
ala	-10.5874
▁practice	-10.5874
▁partner	-10.5874
lauren	-10.5874
hildrenthinkthat	-10.5876
far	-10.588
▁approves	-10.5881
gee	-10.5884
▁type	-10.5884
▁parking	-10.5884
▁australia	-10.5887
▁mistake	-10.5888
▁manager	-10.5897
▁funds	-10.5903
▁hack	-10.5906
▁anyway	-10.5912
▁steps	-10.5913
▁holds	-10.5914
qui	-10.5916
▁sees	-10.592
kill	-10.592
▁wage	-10.5923
bra	-10.5925
▁bike	-10.5926
▁neighborhood	-10.5927
▁laugh	-10.5931
▁attacking	-10.5933
jim	-10.5947
▁sets	-10.5949
▁21	-10.5951
▁bear	-10.5955
debate	-10.5955
sea	-10.596
▁research	-10.5962
ama	-10.5965
▁dreams	-10.5973
valentinesday	-10.5973
▁lawmaker	-10.5977
▁accuse	-10.5978
▁breitbart	-10.5983
▁puerto	-10.5985
hannah	-10.5986
▁footage	-10.5986
▁mix	-10.5992
▁bigger	-10.5992
▁insurance	-10.5997
▁twice	-10.6004
▁ill	-10.6005
facts	-10.6012
▁dirty	-10.6012
box	-10.6013
▁northern	-10.6017
▁majority	-10.6018
▁migrant	-10.602
▁plot	-10.6022
jess	-10.6026
▁saved	-10.6027
draintheswamp	-10.6028
▁profile	-10.6029
▁natural	-10.603
▁spot	-10.6034
▁dozens	-10.604
▁prevent	-10.6041
hum	-10.6042
left	-10.6043
▁podcast	-10.6044
coach	-10.6046
burn	-10.6049
▁definitely	-10.6059
racist	-10.6061
▁oregon	-10.6065
123	-10.6068
▁elizabeth	-10.6076
▁boat	-10.6078
▁worry	-10.6078
nie	-10.6079
▁ignore	-10.6084
ima	-10.6085
▁tech	-10.6088
ain	-10.6092
thingsthat	-10.6096
ski	-10.6097
▁concert	-10.6107
▁seven	-10.611
▁channel	-10.6112
____	-10.6118
▁campus	-10.6122
bot	-10.6122
▁cuz	-10.6124
▁bond	-10.6129
▁native	-10.6141
howtoloseyourjob	-10.6146
lcxvf	-10.6152
▁housing	-10.6152
bear	-10.6154
▁animal	-10.6155
▁excuse	-10.6157
▁rare	-10.6158
▁missed	-10.6159
▁promises	-10.6161
▁facing	-10.6165
▁raises	-10.6166
▁led	-10.6173
▁files	-10.6173
▁decide	-10.618
▁connection	-10.6185
2015	-10.6187
kai	-10.6191
▁position	-10.6194
▁dollars	-10.6198
▁match	-10.62
▁gender	-10.6202
lip	-10.6211
port	-10.6212
made	-10.6213
▁mouth	-10.6214
▁disaster	-10.6217
▁harry	-10.6218
warfareww	-10.622
▁drinking	-10.6222
▁agent	-10.6222
▁original	-10.6225
▁leading	-10.6225
ious	-10.6231
▁based	-10.6233
▁bag	-10.6237
▁burning	-10.624
▁clothes	-10.6246
▁ideas	-10.6247
emily	-10.6247
▁cards	-10.625
▁milwaukee	-10.6253
▁christians	-10.6256
nar	-10.6259
▁chicken	-10.6259
▁react	-10.6264
✔	-10.6265
ale	-10.6273
▁ran	-10.6275
▁mainstream	-10.6275
▁dept	-10.6275
▁hopes	-10.6288
▁policies	-10.6289
▁uses	-10.6295
▁cartoon	-10.6298
▁chuck	-10.6303
▁brothers	-10.6305
bts	-10.6309
▁apparently	-10.631
▁prime	-10.6311
ami	-10.6313
▁greek	-10.6314
▁healthy	-10.632
▁knee	-10.6326
▁contract	-10.6327
▁wedding	-10.6328
tri	-10.6329
lejtvcr	-10.6334
sexting	-10.6334
tee	-10.6342
abletrumpstweets	-10.6346
▁steal	-10.6349
sweet	-10.6359
ren	-10.6361
cruzcrew	-10.6365
cur	-10.6367
stone	-10.6371
ical	-10.6383
▁excited	-10.6385
▁archived	-10.639
ergusonremembers	-10.6391
▁tips	-10.6391
▁confirmed	-10.6395
jordan	-10.6395
▁hills	-10.6398
▁promise	-10.6404
▁thoughts	-10.6405
▁zero	-10.6406
berry	-10.6408
mic	-10.6408
sal	-10.641
▁explains	-10.6411
▁leak	-10.6415
▁cuba	-10.6417
▁searching	-10.6417
▁teach	-10.6422
▁theft	-10.6423
▁beyond	-10.6423
▁bathroom	-10.6424
elect	-10.6425
nes	-10.6425
yes	-10.6427
eric	-10.6429
use	-10.6433
ship	-10.6439
▁serve	-10.6446
▁gain	-10.645
▁senior	-10.6453
▁davis	-10.6454
mia	-10.6459
ran	-10.646
▁waste	-10.646
▁9/11	-10.6462
▁zoo	-10.6464
eme	-10.6474
dia	-10.6475
▁dress	-10.6475
▁scam	-10.6479
donald	-10.6482
mind	-10.6483
ells	-10.6487
▁played	-10.6495
▁prepare	-10.6495
wheniwasyoung	-10.65
baker	-10.6502
nut	-10.6506
max	-10.6507
▁democracy	-10.6512
▁romney	-10.6512
rah	-10.6519
was	-10.6521
ashley	-10.6521
▁heavy	-10.6522
▁square	-10.6536
amber	-10.6537
edalawyerbecause	-10.6542
▁pregnant	-10.6545
▁enter	-10.6549
▁advice	-10.6549
home	-10.6553
▁idiot	-10.6558
▁boo	-10.6559
▁mission	-10.6562
▁fresh	-10.6562
steve	-10.6564
jon	-10.6565
▁criminals	-10.6566
▁afghan	-10.6571
▁busy	-10.6579
▁appeal	-10.6587
strong	-10.6592
pen	-10.6594
hate	-10.6598
▁completely	-10.6598
look	-10.6602
▁graham	-10.6605
bay	-10.661
▁flashback	-10.6613
▁style	-10.6614
jam	-10.6619
▁jeb	-10.6625
▁enemy	-10.6629
▁sentence	-10.6631
▁keeping	-10.6632
food	-10.6633
▁orange	-10.6637
▁museum	-10.6638
cruz	-10.6642
▁stands	-10.6642
from	-10.6643
ominationwouldbe	-10.6649
myemmy	-10.665
▁funeral	-10.6656
dad	-10.6657
▁annual	-10.6662
▁bout	-10.6663
▁firefighters	-10.6664
▁critical	-10.6666
▁drone	-10.6668
rednationrising	-10.6675
nytimes	-10.6677
nor	-10.6678
▁hip	-10.6679
sel	-10.668
▁master	-10.668
shouldbecensored	-10.6688
▁fails	-10.6695
▁awful	-10.67
▁note	-10.6705
▁current	-10.6712
▁highway	-10.672
jane	-10.6725
▁huckabee	-10.6747
pur	-10.6754
ery	-10.6756
▁present	-10.6765
▁subway	-10.6767
chan	-10.6772
▁condition	-10.6776
▁bought	-10.678
▁row	-10.6782
▁receive	-10.6782
obamanextjob	-10.6787
ano	-10.6787
▁january	-10.6798
▁pulled	-10.6802
▁village	-10.6804
▁ambassador	-10.6818
wear	-10.6818
▁responds	-10.682
▁weak	-10.682
▁incredible	-10.6823
▁growth	-10.6824
▁robbed	-10.6827
cro	-10.683
▁rico	-10.6834
rid	-10.6835
net	-10.6843
▁cases	-10.6867
▁finding	-10.6879
▁decided	-10.688
▁pool	-10.6882
▁bob	-10.6882
itsriskyto	-10.6886
▁narrative	-10.6886
=	-10.6892
▁doubt	-10.69
week	-10.6904
▁struggle	-10.6904
▁dare	-10.6905
roo	-10.6905
▁upset	-10.6906
card	-10.6906
▁prices	-10.6911
rapstationradio	-10.6913
never	-10.6919
▁warm	-10.6925
▁worked	-10.6925
▁classic	-10.6928
▁eight	-10.6935
▁jet	-10.6937
▁construction	-10.694
wikileaks	-10.6944
▁concerns	-10.6948
▁pathetic	-10.6949
▁notice	-10.6949
▁cam	-10.6951
▁$4	-10.6958
▁soldier	-10.6961
non	-10.6964
▁escape	-10.6964
whi	-10.6966
daniel	-10.697
stat	-10.697
tay	-10.6974
▁charles	-10.6974
christian	-10.6979
▁somebody	-10.6984
resist	-10.6989
▁loves	-10.6992
▁attend	-10.7
arre	-10.7
▁admit	-10.7001
under	-10.7002
▁benghazi	-10.7007
é	-10.7008
▁denies	-10.7008
▁schedule	-10.7015
▁trail	-10.7019
report	-10.7038
aid	-10.7041
▁treatment	-10.7042
▁kevin	-10.7048
▁treat	-10.7051
▁donate	-10.7052
rum	-10.7052
▁employees	-10.7055
ring	-10.7055
▁sought	-10.7062
▁financial	-10.7067
▁mid	-10.7074
izing	-10.7074
▁tears	-10.7077
▁potential	-10.7083
▁haiti	-10.7084
▁rap	-10.7084
▁wonderful	-10.7084
boi	-10.7085
▁speed	-10.7086
▁wind	-10.7088
fun	-10.7094
▁200	-10.7097
today	-10.7101
▁learned	-10.7105
ans	-10.7114
smoretrustedthan	-10.7121
gate	-10.7123
▁injuries	-10.7123
▁etc	-10.7124
▁congressman	-10.7128
gan	-10.7133
mary	-10.7135
▁tragedy	-10.7137
▁views	-10.7146
▁ugly	-10.7147
▁till	-10.7149
▁respond	-10.7161
▁pastor	-10.7167
▁listening	-10.7168
ele	-10.7171
▁stadium	-10.7175
▁answers	-10.718
▁rapper	-10.7184
▁progress	-10.7184
lar	-10.719
▁ridiculous	-10.7191
milwaukee	-10.7191
▁rick	-10.7192
▁chat	-10.7199
▁philadelphia	-10.72
▁services	-10.7202
▁passed	-10.7203
▁grab	-10.7208
loo	-10.7212
adam	-10.7212
▁rush	-10.7212
▁actions	-10.7218
▁sha	-10.7232
▁actress	-10.7234
▁beauty	-10.7234
some	-10.7241
▁russians	-10.7244
beats	-10.7246
▁vows	-10.7247
▁establishment	-10.7253
▁prayer	-10.7253
dagr	-10.7253
▁ones	-10.7253
▁intel	-10.7253
▁afghanistan	-10.7254
▁planning	-10.7256
▁australian	-10.726
▁issued	-10.7268
▁firing	-10.7269
▁handle	-10.7269
▁example	-10.7275
gra	-10.7275
▁wrote	-10.7282
post	-10.7285
▁egypt	-10.7289
▁thread	-10.7297
▁swamp	-10.7297
▁boyfriend	-10.7298
▁figure	-10.7299
▁ad	-10.7303
▁leaked	-10.7309
▁trans	-10.7309
rie	-10.7313
▁cell	-10.7327
med	-10.7328
jenn	-10.7329
▁whose	-10.7333
▁las	-10.7337
pan	-10.7341
steph	-10.7344
kee	-10.7345
▁nazis	-10.7346
▁shots	-10.7346
▁touch	-10.7347
▁orlando	-10.7354
dnc	-10.7365
ruinad	-10.7366
▁ordered	-10.7367
▁iphone	-10.7367
▁rejects	-10.7369
blackhistorymont	-10.7371
▁unless	-10.7374
sar	-10.7375
▁oscar	-10.7378
josh	-10.738
▁mac	-10.7382
ach	-10.7385
▁period	-10.7387
point	-10.7394
▁above	-10.7398
mixtape	-10.7406
trumpbecause	-10.7409
johnson	-10.7413
martin	-10.7418
▁announced	-10.7419
▁businesses	-10.742
▁mary	-10.742
▁berkeley	-10.7422
innerinonephrase	-10.7422
here	-10.7422
▁matthew	-10.7422
▁rio	-10.7423
roll	-10.7423
refugees	-10.7424
▁feels	-10.7426
▁sec	-10.7426
marv	-10.7437
▁oklahoma	-10.7438
▁injury	-10.7444
▁sitting	-10.7444
▁refuse	-10.7444
kha	-10.7448
▁linked	-10.745
fur	-10.7451
▁path	-10.7452
▁minute	-10.7452
atlanta	-10.7453
nia	-10.7455
feelthebern	-10.7457
▁dispute	-10.7464
▁coalition	-10.7468
▁officially	-10.7469
▁strategy	-10.7471
▁quit	-10.7476
**	-10.7479
▁movies	-10.748
▁pics	-10.7487
▁disney	-10.7488
▁fashion	-10.7489
▁teachers	-10.7492
▁scared	-10.7497
▁causes	-10.7498
▁jan	-10.7503
newyork	-10.7503
▁machine	-10.7504
▁picks	-10.7506
▁legend	-10.7509
▁table	-10.7514
▁arabia	-10.7522
▁knife	-10.7535
▁finish	-10.7537
pat	-10.7543
▁normal	-10.7544
quin	-10.7547
▁overnight	-10.7553
▁opportunity	-10.7555
▁propaganda	-10.7558
▁agreement	-10.7568
first	-10.7582
▁contact	-10.7583
▁slavery	-10.7583
▁request	-10.7588
stra	-10.7589
call	-10.759
▁pants	-10.7597
mis	-10.7598
▁ship	-10.76
▁operation	-10.7613
▁blasio	-10.7614
▁shopping	-10.7617
▁lit	-10.7623
erin	-10.7625
havearighttoknow	-10.7629
ado	-10.7629
▁threatened	-10.763
beat	-10.7633
body	-10.7641
▁rescued	-10.7648
▁documents	-10.7648
▁dying	-10.7651
▁loser	-10.7651
▁reaction	-10.7651
▁limit	-10.7655
▁nominee	-10.7657
gold	-10.7657
str	-10.7659
▁revealed	-10.7661
cum	-10.7664
▁simply	-10.7666
sie	-10.767
walmart	-10.7673
▁korean	-10.768
▁libs	-10.768
ree	-10.7683
▁privilege	-10.7684
___	-10.7687
▁antonio	-10.7691
qua	-10.7691
▁em	-10.7692
▁supremacy	-10.7694
▁cabinet	-10.7694
lost	-10.7695
▁especially	-10.7695
▁none	-10.7698
▁rid	-10.7699
▁storms	-10.77
support	-10.7701
▁canadian	-10.7701
thomas	-10.7706
band	-10.7706
ization	-10.7709
lea	-10.7709
▁bc	-10.7715
ask	-10.7718
▁matt	-10.772
▁brilliant	-10.7722
▁flooding	-10.7724
▁combat	-10.7725
▁auto	-10.7728
▁property	-10.7731
▁newspaper	-10.7731
▁bringing	-10.7732
▁wisconsin	-10.7735
jeff	-10.7735
cra	-10.7744
▁built	-10.7746
▁plant	-10.7747
▁fish	-10.7751
atl	-10.7758
▁maxine	-10.7759
▁tear	-10.7762
▁gen	-10.7768
▁giant	-10.7768
▁stuck	-10.7771
▁blaming	-10.7774
▁rand	-10.7776
▁bombs	-10.7779
▁pet	-10.7782
▁costs	-10.7785
ina	-10.7785
cent	-10.7786
▁blocked	-10.7786
▁joins	-10.7791
▁dope	-10.7796
ists	-10.7803
▁debut	-10.7804
change	-10.7807
▁caused	-10.7807
▁largest	-10.7809
▁assassination	-10.7811
▁toward	-10.7815
kel	-10.7816
▁indiana	-10.7819
▁patrol	-10.7819
▁felt	-10.7823
detothanksgiving	-10.7825
foodpoisoning	-10.7825
▁profit	-10.7837
▁lets	-10.7838
▁owners	-10.7844
▁pardon	-10.7844
▁juan	-10.7846
▁hasn	-10.7848
americafirst	-10.7849
▁marco	-10.785
survivalg	-10.7854
stogetdivorced	-10.7855
▁decades	-10.7855
obamacare	-10.7857
▁indian	-10.7866
bon	-10.7868
andrew	-10.7872
hop	-10.7872
▁charlie	-10.7873
▁blind	-10.7877
▁cap	-10.7879
press	-10.7895
▁terrible	-10.7897
▁dollar	-10.7898
princess	-10.7899
▁eve	-10.7906
▁hello	-10.7906
▁targets	-10.7907
illegal	-10.7909
▁insane	-10.7912
▁minnesota	-10.7914
msm	-10.7916
▁smh	-10.7916
▁fellow	-10.7916
▁peter	-10.7917
▁tennessee	-10.792
xxx	-10.7922
▁sexually	-10.7924
▁itself	-10.7928
▁bills	-10.7928
▁vacation	-10.7929
hen	-10.793
▁crack	-10.7933
▁ivanka	-10.7933
▁congratulations	-10.7936
eye	-10.7941
▁actual	-10.7948
▁reportedly	-10.795
blog	-10.7953
▁italy	-10.7953
▁cook	-10.7954
sis	-10.7955
▁equal	-10.7956
▁proves	-10.7961
▁repeat	-10.7963
▁bullshit	-10.7967
dub	-10.7967
▁colin	-10.7968
▁jump	-10.7974
▁congressional	-10.7974
ras	-10.7979
nee	-10.7981
▁correct	-10.7982
▁eastern	-10.7985
dom	-10.7985
▁pakistan	-10.7988
berniesanders	-10.7988
list	-10.7994
mun	-10.8001
▁penn	-10.8001
▁jewish	-10.8002
freedom	-10.8003
kate	-10.8003
▁witch	-10.8006
▁parties	-10.8008
▁journalist	-10.8012
2020	-10.8013
lic	-10.8018
ero	-10.8031
▁laughing	-10.8033
▁captured	-10.8038
▁taste	-10.8041
▁nancy	-10.8045
▁toddler	-10.8048
bil	-10.805
gri	-10.8051
▁sending	-10.8053
▁•	-10.8055
▁character	-10.8058
▁artists	-10.8062
family	-10.8062
▁married	-10.8064
lock	-10.8066
▁2014	-10.8067
▁highest	-10.8069
charlottesville	-10.8079
▁flake	-10.8088
▁inmate	-10.8091
▁witness	-10.8092
▁closing	-10.8094
▁edge	-10.8097
▁perform	-10.8098
▁agents	-10.8104
▁blacks	-10.8106
about	-10.8106
curated	-10.811
▁taylor	-10.811
▁falling	-10.8111
tim	-10.8119
network	-10.8123
ium	-10.8123
▁22	-10.8124
▁influence	-10.8128
ial	-10.813
▁seem	-10.8132
▁scores	-10.8133
▁matters	-10.8134
▁surgery	-10.814
rus	-10.8143
iran	-10.8143
dale	-10.8144
▁netflix	-10.8147
▁blog	-10.8149
▁iranian	-10.8154
fra	-10.8155
▁bears	-10.8157
▁hi	-10.8157
nas	-10.816
▁spirit	-10.8161
▁animals	-10.8171
ata	-10.8171
▁author	-10.8172
brian	-10.8174
▁immediately	-10.8178
wolf	-10.8182
▁august	-10.8183
pie	-10.8187
▁tag	-10.8188
▁floor	-10.8196
▁except	-10.8197
tony	-10.8198
kelly	-10.8201
▁purpose	-10.8207
lies	-10.8207
▁result	-10.8211
▁browns	-10.8215
▁🚨	-10.8216
sec	-10.8218
ada	-10.8221
arb	-10.8224
▁everywhere	-10.8224
vin	-10.8226
▁scientists	-10.8228
▁fault	-10.823
▁aide	-10.823
beauty	-10.8231
▁strength	-10.8241
▁buying	-10.8242
dave	-10.8245
▁tied	-10.8246
▁responsible	-10.8246
▁videos	-10.8255
▁drivers	-10.8256
▁zone	-10.8262
▁pen	-10.8273
▁honest	-10.8278
oscars	-10.8279
▁alcohol	-10.8282
▁heroin	-10.8286
has	-10.8288
▁conspiracy	-10.8291
▁hitler	-10.8292
▁lock	-10.8293
bla	-10.8297
▁lebron	-10.8299
▁scheme	-10.8299
▁becoming	-10.83
▁signed	-10.8301
▁leftists	-10.8302
▁magic	-10.8302
space	-10.8307
▁experts	-10.8308
▁plea	-10.8311
▁chocolate	-10.8314
▁closer	-10.8318
▁andrew	-10.832
▁famous	-10.8324
mont	-10.8325
katie	-10.8326
▁watched	-10.8334
▁religious	-10.8339
▁mood	-10.8341
▁hacked	-10.8343
▁surveillance	-10.8351
▁spin	-10.8351
based	-10.8351
▁enforcement	-10.8353
darcy	-10.8356
bia	-10.8358
master	-10.8363
child	-10.8364
▁settlement	-10.8369
▁$10	-10.837
bol	-10.8373
bug	-10.8375
▁surprised	-10.8377
▁supposed	-10.838
bor	-10.8381
▁olympic	-10.8385
ili	-10.8391
kirk	-10.8392
▁apologize	-10.8395
aye	-10.8399
▁port	-10.8401
lisa	-10.8406
cle	-10.8408
wall	-10.8408
tur	-10.8412
▁ca	-10.8422
pre	-10.8423
▁feed	-10.8423
rey	-10.8424
▁breakfast	-10.8424
hope	-10.8425
▁sharia	-10.8428
▁disease	-10.8431
▁ladies	-10.8433
▁fame	-10.8434
▁reveal	-10.8439
ito	-10.8446
baseball	-10.8448
360	-10.8449
seanhannity	-10.845
▁irs	-10.8453
▁==>	-10.8454
lex	-10.8456
▁slain	-10.8458
▁fighters	-10.846
fish	-10.8464
▁updates	-10.8465
maria	-10.8468
nbc	-10.847
log	-10.8472
▁parts	-10.8472
▁stole	-10.8473
▁november	-10.8474
▁praises	-10.8474
▁newark	-10.8474
prince	-10.8484
▁naked	-10.8486
cut	-10.8491
wsj	-10.8491
▁seeking	-10.8493
▁capitol	-10.8493
robert	-10.8495
▁lots	-10.8495
▁holy	-10.8495
myu	-10.8495
▁earthquake	-10.8498
▁weed	-10.8502
▁trend	-10.8505
▁leftist	-10.8507
pol	-10.8507
▁ratings	-10.8509
action	-10.8516
villa	-10.8517
▁heroes	-10.8517
▁status	-10.8518
▁giants	-10.8522
▁organization	-10.8527
doc	-10.853
▁bell	-10.853
▁crap	-10.8532
▁pedestrian	-10.8533
▁language	-10.8537
school	-10.8541
laura	-10.8542
▁hire	-10.8543
▁elect	-10.8546
davis	-10.8549
bab	-10.8549
rad	-10.8549
▁efforts	-10.8552
▁proposal	-10.8559
▁blames	-10.8563
▁instagram	-10.8565
▁hiring	-10.8565
▁size	-10.857
▁seahawks	-10.8572
▁attempted	-10.8573
▁sam	-10.8578
▁pushing	-10.8579
▁brutality	-10.8589
bre	-10.8589
hall	-10.8595
▁championship	-10.8608
▁meets	-10.8612
▁crews	-10.8615
fail	-10.8619
▁alex	-10.8622
▁miller	-10.8625
▁steelers	-10.8629
row	-10.863
thefirst	-10.863
▁hrc	-10.8634
hand	-10.8646
▁acting	-10.8647
chief	-10.8651
jaketapper	-10.8652
▁cardinals	-10.8655
▁yrs	-10.8656
▁richard	-10.8666
yung	-10.8673
crookedhillary	-10.8675
▁dakota	-10.8676
dani	-10.8679
viv	-10.868
▁upcoming	-10.8681
▁toll	-10.8681
lay	-10.8682
moon	-10.8689
▁allegations	-10.8689
▁clash	-10.8697
hillaryforprison	-10.87
▁towards	-10.8702
dont	-10.8709
baltimore	-10.8713
▁kanye	-10.8716
rate	-10.8719
rio	-10.8719
isa	-10.8722
▁committed	-10.8724
▁defending	-10.8729
woman	-10.873
▁quite	-10.8735
ctl	-10.8736
▁mention	-10.8741
▁complex	-10.8742
tru	-10.8743
▁farm	-10.8745
▁fell	-10.8749
jer	-10.8752
▁schumer	-10.8756
▁celebrates	-10.8756
unforpresidentif	-10.8764
▁hat	-10.8769
fresh	-10.8776
williams	-10.8776
lord	-10.8776
▁revolution	-10.8778
mrs	-10.8792
▁appear	-10.8794
deray	-10.8799
▁value	-10.8801
▁summit	-10.8802
reasonstoprotest	-10.8813
▁honored	-10.8813
kevin	-10.8815
▁allies	-10.8816
beth	-10.8817
ino	-10.8819
bomb	-10.8822
▁session	-10.8823
▁smell	-10.8823
sara	-10.883
▁welfare	-10.8835
xoxo	-10.8836
▁songs	-10.8838
▁pat	-10.8845
worldnews	-10.8848
▁claiming	-10.8849
▁multi	-10.8851
potuslasttweet	-10.8853
ris	-10.8862
▁warrant	-10.8862
ria	-10.8865
▁lunch	-10.887
▁invasion	-10.8873
▁digital	-10.8876
▁tweeting	-10.8884
give	-10.8892
▁bat	-10.8893
giselleevns	-10.8894
org	-10.89
quotes	-10.8901
▁trailer	-10.8903
▁prosecutors	-10.8908
emi	-10.8916
dal	-10.8917
sign	-10.8918
▁october	-10.8923
hit	-10.8931
▁rallies	-10.8935
btp	-10.8942
▁rage	-10.8942
▁quarter	-10.8945
▁instantly	-10.8945
▁90	-10.8945
▁received	-10.8946
▁horrible	-10.895
vol	-10.8953
▁mosque	-10.8955
▁chemical	-10.8955
▁venezuela	-10.8958
▁curry	-10.8959
gue	-10.8961
▁reagan	-10.8962
dream	-10.8965
berg	-10.8966
▁borders	-10.8971
▁route	-10.8979
▁500	-10.8981
▁kiss	-10.8981
ging	-10.8986
vic	-10.8987
barackobama	-10.8988
▁chaos	-10.8989
▁planet	-10.8991
uniteblue	-10.8993
ati	-10.8996
▁modern	-10.8996
reilly	-10.8997
ington	-10.8999
bun	-10.9003
▁pd	-10.9004
shawn	-10.9005
▁runs	-10.9007
▁development	-10.9007
cru	-10.9007
char	-10.9009
▁cats	-10.901
whitehouse	-10.9012
dra	-10.9013
▁<==	-10.9017
ches	-10.9021
▁delays	-10.903
tweets	-10.903
raw	-10.903
boss	-10.9032
▁chill	-10.9033
mus	-10.9033
▁moon	-10.9049
▁content	-10.905
▁quake	-10.9051
▁espn	-10.9053
▁regime	-10.9061
dem	-10.9061
month	-10.9063
ily	-10.9065
iaeqrd	-10.9067
detroit	-10.9071
kan	-10.9072
▁harassment	-10.9074
happybirthday	-10.9075
▁split	-10.9076
▁raised	-10.9077
put	-10.9079
bou	-10.9081
▁resigns	-10.9084
▁allen	-10.9084
▁bias	-10.9087
daystodolist	-10.9092
▁senators	-10.9098
jas	-10.9099
▁conflict	-10.91
msnbc	-10.9101
rin	-10.9104
▁comp	-10.9105
iya	-10.9108
▁congrats	-10.9109
▁parliament	-10.9109
✨	-10.9109
mil	-10.9112
▁flash	-10.9115
▁akron	-10.9118
▁goals	-10.9118
▁clashes	-10.9121
frank	-10.9122
▁recall	-10.9122
▁se	-10.9124
any	-10.9125
▁shoes	-10.9125
democrats	-10.9128
▁commission	-10.9129
ika	-10.9131
aya	-10.9131
tex	-10.9134
▁cyber	-10.9135
▁concerned	-10.9136
cee	-10.9136
▁fill	-10.9138
▁cares	-10.9139
▁justin	-10.9139
▁cosby	-10.914
▁fears	-10.9141
▁elderly	-10.9142
ded	-10.9144
▁strip	-10.9145
▁condemns	-10.915
▁rising	-10.9153
antifa	-10.9155
▁protection	-10.9157
eng	-10.9163
▁willing	-10.9164
moore	-10.9164
listen	-10.9168
▁forgot	-10.9169
▁communist	-10.917
200	-10.9171
▁weapon	-10.9175
ichlzw	-10.9184
▁appeals	-10.9188
▁wilson	-10.9191
▁assange	-10.9192
▁refused	-10.9193
kkk	-10.9196
▁civilians	-10.9198
▁argument	-10.9201
mann	-10.9204
▁considering	-10.9207
ificouldntlie	-10.9209
▁🚫	-10.921
hol	-10.9213
sean	-10.9214
ding	-10.9216
▁marathon	-10.9218
▁sir	-10.9222
▁proposed	-10.9228
▁citizen	-10.9232
▁brutal	-10.9234
read	-10.9235
nba	-10.9235
▁reward	-10.9237
▁stress	-10.924
▁peaceful	-10.9241
▁raid	-10.9242
▁cbs	-10.9255
▁license	-10.927
▁turning	-10.9271
celebs	-10.9274
▁bra	-10.9275
teen	-10.9275
▁collusion	-10.9275
▁letting	-10.9277
▁northeast	-10.9278
▁hook	-10.9281
▁screen	-10.9284
▁adult	-10.9285
▁commercial	-10.9285
london	-10.9287
barr	-10.9289
▁map	-10.9291
▁moments	-10.9297
▁stick	-10.9298
▁image	-10.9301
▁minimum	-10.9303
hart	-10.9307
▁constitutional	-10.9307
gym	-10.931
▁appears	-10.9311
▁daca	-10.9312
▁donations	-10.9313
▁conversation	-10.9314
▁ken	-10.9314
had	-10.9316
blu	-10.9318
fin	-10.932
▁provide	-10.9322
▁mcdonald	-10.9323
▁gear	-10.9326
gie	-10.9326
▁60	-10.933
▁brady	-10.9331
▁ending	-10.9334
hai	-10.9335
▁pirates	-10.9335
▁halt	-10.9341
▁protecting	-10.9343
▁horror	-10.935
▁reporting	-10.935
dap	-10.9354
know	-10.9355
▁benefits	-10.9356
▁frank	-10.9357
▁lawyers	-10.9363
help	-10.9367
▁abc	-10.9367
ooo	-10.9371
▁vet	-10.9372
▁writing	-10.9373
cops	-10.9375
▁tigers	-10.9376
ries	-10.9378
▁statues	-10.9381
▁knowledge	-10.9383
▁walker	-10.9384
▁exist	-10.94
march	-10.9403
▁richmond	-10.9405
▁design	-10.9407
gro	-10.9409
oli	-10.9409
babe	-10.9413
▁further	-10.9414
▁leaks	-10.9416
bird	-10.9417
try	-10.942
▁wave	-10.9421
prayforbrussels	-10.9423
▁rips	-10.9427
leo	-10.9428
▁lewis	-10.943
▁brave	-10.9431
ela	-10.9433
biz	-10.9434
▁sub	-10.9436
▁critics	-10.9436
▁ocean	-10.9436
▁prize	-10.9443
board	-10.9445
vip	-10.9452
bas	-10.9457
▁tea	-10.9461
▁feelings	-10.9462
kyle	-10.9464
hqpo	-10.9476
▁ads	-10.9477
history	-10.9478
▁version	-10.9482
lia	-10.9488
▁snap	-10.9489
▁buddy	-10.9496
area	-10.9497
▁lines	-10.9497
▁jokes	-10.9498
alo	-10.9499
▁guest	-10.95
avi	-10.9502
▁places	-10.9507
where	-10.9512
aded	-10.9513
▁loving	-10.9518
▁happiness	-10.9519
var	-10.9526
▁miles	-10.953
▁average	-10.953
▁clearly	-10.9534
attack	-10.9535
▁gifts	-10.9538
▁kept	-10.9538
▁roof	-10.9539
▁deals	-10.954
evas	-10.9541
worldofhashtags	-10.9544
laww	-10.9549
▁raped	-10.9552
▁direct	-10.9558
makemeha	-10.9562
fall	-10.9563
▁seal	-10.9565
▁unity	-10.9565
▁exchange	-10.9572
mir	-10.9575
▁dec	-10.9577
luke	-10.9578
favoriteheadline	-10.9579
▁unarmed	-10.9579
phil	-10.9584
▁pretend	-10.9585
bae	-10.9588
name	-10.9593
cas	-10.9594
gil	-10.9595
lovemyfriendsbut	-10.9596
pink	-10.9597
▁hacking	-10.9604
▁foot	-10.9607
▁advance	-10.9618
▁treated	-10.9621
▁vets	-10.9621
hun	-10.9627
▁era	-10.9628
breitbartnews	-10.9628
teyouinonephrase	-10.9632
▁lincoln	-10.9633
uni	-10.9636
cnnpolitics	-10.9637
▁responsibility	-10.964
▁covered	-10.9644
▁triple	-10.9645
▁flu	-10.9653
▁mobile	-10.9656
won	-10.9662
▁kentucky	-10.9663
von	-10.967
rise	-10.9672
kie	-10.9678
▁exit	-10.9683
▁trafficking	-10.9686
▁diamond	-10.9692
dead	-10.9694
benghazi	-10.9695
gin	-10.9698
bitch	-10.9701
▁loretta	-10.9705
ities	-10.9706
een	-10.9714
▁min	-10.9718
▁neo	-10.9718
self	-10.9719
▁gary	-10.9721
nat	-10.9727
▁meltdown	-10.9729
▁queens	-10.9732
hon	-10.9733
▁evening	-10.9733
emma	-10.9733
rachel	-10.9736
tag	-10.9737
▁separate	-10.9738
conservative	-10.9744
wil	-10.9746
▁adam	-10.9749
▁theory	-10.9757
sir	-10.9758
▁ali	-10.9762
park	-10.9763
▁nj	-10.9763
▁nine	-10.9769
▁pledge	-10.977
▁olympics	-10.9772
prod	-10.9773
▁meat	-10.9773
fact	-10.978
▁wolf	-10.9783
▁spy	-10.9784
blk	-10.9788
▁herself	-10.9788
▁changing	-10.9792
brook	-10.9794
morgan	-10.9798
▁hampshire	-10.98
▁bull	-10.9804
leg	-10.9808
▁favor	-10.981
▁believes	-10.9811
bow	-10.9816
▁commit	-10.9817
vis	-10.9822
▁apart	-10.9824
song	-10.9829
last	-10.9832
pretty	-10.9832
▁pls	-10.9838
pea	-10.9839
▁outrage	-10.9841
liberal	-10.9844
▁politician	-10.985
open	-10.9853
▁cal	-10.9858
▁promo	-10.9858
▁diversity	-10.9861
▁population	-10.9863
lum	-10.9864
ena	-10.9864
▁links	-10.9865
▁relief	-10.9868
bru	-10.9869
▁disabled	-10.9871
hoo	-10.9871
▁horse	-10.9873
kayla	-10.9877
yyy	-10.9878
▁austin	-10.9878
▁bodies	-10.9879
▁shower	-10.9883
747	-10.9883
▁$15	-10.9888
rag	-10.9889
room	-10.9892
▁megyn	-10.9893
▁roundup	-10.9897
▁pink	-10.9907
▁beginning	-10.9909
brexit	-10.9911
grace	-10.9914
▁haha	-10.9917
▁tests	-10.9917
danita	-10.992
▁palestinian	-10.9921
bin	-10.9922
bet	-10.9923
▁banks	-10.9923
jobb	-10.9926
una	-10.9928
▁supports	-10.9935
▁smoking	-10.9938
fil	-10.9938
▁pentagon	-10.994
mack	-10.9942
▁extend	-10.9945
▁commander	-10.9947
▁posts	-10.995
▁cha	-10.995
▁praise	-10.9951
▁danger	-10.9951
▁brief	-10.9955
▁hiding	-10.9958
▁jailed	-10.9959
▁walmart	-10.9962
very	-10.9962
▁blocks	-10.9963
▁feet	-10.9963
▁endorsement	-10.9963
▁bitter	-10.9974
andy	-10.9978
▁thru	-10.9979
boycott	-10.9984
donaldtrump	-10.9988
▁tape	-10.9989
shu	-10.9989
▁shake	-10.999
dannis	-10.9991
keep	-10.9996
▁identify	-10.9996
stay	-10.9997
▁threatening	-10.9999
▁shirt	-11.0005
▁remind	-11.0008
ric	-11.0009
fab	-11.0022
justin	-11.0023
targets	-11.0025
▁pays	-11.0028
▁english	-11.003
▁deadline	-11.0031
peace	-11.0031
▁standoff	-11.0031
▁bail	-11.0032
tyler	-11.0032
political	-11.0032
peter	-11.0034
▁spill	-11.0035
▁pride	-11.0035
brooke	-11.0042
▁rachel	-11.0044
▁criticism	-11.0045
▁journalists	-11.0051
▁cincinnati	-11.0055
ava	-11.0057
▁cake	-11.0063
▁testify	-11.0064
▁drake	-11.0065
▁beaten	-11.007
alexis	-11.0075
podestaemails	-11.0081
his	-11.0082
▁stone	-11.0085
▁analysis	-11.0091
▁counter	-11.0097
▁burns	-11.0102
▁thug	-11.0107
mah	-11.0111
▁halloween	-11.0118
▁rocket	-11.0119
▁endorses	-11.0119
wal	-11.0124
amanda	-11.0124
george	-11.0125
▁expert	-11.0126
▁targeting	-11.013
ming	-11.013
veterans	-11.0133
▁fourth	-11.0135
▁aims	-11.0137
▁negative	-11.0137
▁»	-11.0138
▁century	-11.0139
▁strange	-11.0143
mondaymotivation	-11.0146
jew	-11.0149
▁indie	-11.0149
▁sing	-11.0155
▁discrimination	-11.0161
▁helicopter	-11.0165
▁charity	-11.0165
▁backfires	-11.0165
▁ncaa	-11.0167
wwe	-11.0167
▁collapse	-11.0168
▁hosted	-11.0168
▁improve	-11.0174
▁hang	-11.0181
▁visits	-11.0184
▁preview	-11.0185
▁filed	-11.0189
josephjett	-11.0193
▁brian	-11.0193
▁singing	-11.0197
▁urge	-11.02
▁independent	-11.0201
howtomakeamangay	-11.0202
lifemagicspells	-11.0202
▁socialism	-11.0202
raqqa	-11.0203
▁drama	-11.0208
▁libya	-11.0214
liberty	-11.0215
view	-11.022
▁denied	-11.0221
▁mitchellvii	-11.0223
▁pack	-11.0225
▁earn	-11.0226
▁ballot	-11.0227
▁mount	-11.0237
▁fuel	-11.024
shot	-11.0242
congress	-11.0245
▁loud	-11.0246
harry	-11.0249
bbc	-11.025
▁jam	-11.0252
▁mail	-11.0252
▁rant	-11.0255
▁airlines	-11.0257
▁reject	-11.0257
▁smear	-11.0258
▁$6	-11.0258
shirt	-11.0259
ini	-11.026
▁doctors	-11.0261
▁mountain	-11.0265
presentstrumpgot	-11.0277
hal	-11.0279
▁values	-11.028
▁prep	-11.0286
▁luck	-11.0286
▁sh	-11.0289
▁successful	-11.0292
▁underway	-11.0294
▁anger	-11.0298
▁deserves	-11.03
▁protesting	-11.0301
ral	-11.0303
▁complain	-11.0305
fix	-11.0307
nik	-11.0316
▁sleeping	-11.0319
cul	-11.0319
rea	-11.032
▁flying	-11.0322
▁roger	-11.0323
▁survey	-11.0324
ila	-11.0324
style	-11.0324
train	-11.0327
pel	-11.0335
need	-11.0337
▁shuts	-11.0338
emb	-11.0342
film	-11.0342
cer	-11.0343
▁jon	-11.0343
▁fallen	-11.0346
▁failing	-11.0346
▁pilot	-11.0346
▁donors	-11.0347
▁hospitalized	-11.0353
kur	-11.0355
▁december	-11.0356
▁jason	-11.0357
bella	-11.036
▁duty	-11.0361
ions	-11.0363
▁impeach	-11.0364
eve	-11.0365
▁sat	-11.0366
ilove	-11.037
5,000	-11.0371
eevan	-11.0376
▁benefit	-11.0378
▁laura	-11.038
elli	-11.038
▁mlk	-11.0381
rai	-11.0382
story	-11.0384
dev	-11.0385
poll	-11.0385
charlie	-11.0389
hog	-11.0398
▁worried	-11.0399
▁carter	-11.0403
▁seth	-11.0403
▁behavior	-11.0404
▁woke	-11.0406
▁showed	-11.0408
▁sharing	-11.0409
▁ultimate	-11.041
▁pussy	-11.0411
▁moral	-11.0423
yah	-11.0423
▁beyoncé	-11.0427
zer	-11.0429
ula	-11.043
▁calm	-11.0435
vie	-11.0436
▁✨	-11.0437
poo	-11.0438
▁features	-11.0439
▁#2017	-11.0444
▁agrees	-11.0445
cadens	-11.0449
▁charlotte	-11.045
▁region	-11.045
jah	-11.0451
▁fool	-11.0452
turn	-11.0455
ung	-11.0456
▁learning	-11.0457
▁display	-11.0458
ged	-11.0459
bie	-11.0463
pence	-11.0464
▁wasserman	-11.0466
▁hawaii	-11.0467
▁stores	-11.0468
▁blaze	-11.0475
▁edition	-11.0477
▁cuban	-11.0485
▁mitch	-11.0487
▁keith	-11.0488
▁riots	-11.0495
▁empty	-11.0495
▁abt	-11.05
▁vietnam	-11.0501
▁garden	-11.0505
▁castro	-11.051
▁hop	-11.0513
▁nomination	-11.0525
chen	-11.0526
▁england	-11.0531
▁epa	-11.0531
storm	-11.0531
glo	-11.0536
secret	-11.0538
theresistance	-11.0541
fortrump	-11.0544
▁celebrity	-11.0552
truthfeednews	-11.0553
▁virus	-11.0559
jar	-11.0563
sup	-11.0564
other	-11.0564
hunt	-11.0564
sur	-11.0565
▁hypocrisy	-11.0569
ors	-11.0571
lor	-11.0576
bus	-11.058
even	-11.0582
race	-11.0584
▁wide	-11.0584
▁thinker	-11.0595
▁tucker	-11.0598
▁gather	-11.0598
tea	-11.0599
▁warming	-11.0601
jade	-11.0604
▁plus	-11.0607
nice	-11.0608
ture	-11.0608
photo	-11.0608
addpotinamovie	-11.0611
▁express	-11.0615
ica	-11.0616
hor	-11.0617
iamnotthepr	-11.062
▁jerry	-11.0621
▁detained	-11.0624
nazi	-11.0628
▁suggests	-11.0628
▁conduct	-11.0628
▁moved	-11.0631
▁aliens	-11.0632
▁$100	-11.0634
▁nature	-11.0635
▁taxpayers	-11.0636
esidentbecause	-11.064
leigh	-11.064
▁yall	-11.0641
▁audio	-11.0643
ute	-11.0644
have	-11.0651
▁technology	-11.0653
▁kinda	-11.0655
pee	-11.0659
▁bird	-11.0661
▁rises	-11.0662
▁bright	-11.0662
meg	-11.0664
▁slave	-11.0671
▁voices	-11.0677
thingsevery	-11.0679
▁declared	-11.068
mae	-11.0684
did	-11.0685
▁niggas	-11.0689
shit	-11.0689
bat	-11.0696
ifiweretedcruz	-11.0698
▁difficult	-11.0702
▁cream	-11.0704
▁appreciate	-11.0704
ure	-11.0707
chloe	-11.0707
buy	-11.0708
▁pure	-11.0708
mos	-11.0708
bmdm	-11.0709
still	-11.0712
eff	-11.0714
,"	-11.0715
jessica	-11.0716
fest	-11.0716
▁platform	-11.0718
esh	-11.0723
▁nigeria	-11.0724
▁severe	-11.0725
fee	-11.0725
▁delay	-11.0726
▁cheese	-11.0727
▁trolls	-11.0727
fihadabodydouble	-11.0728
▁tribute	-11.0736
▁crew	-11.0743
workout	-11.0743
▁shelter	-11.0743
▁icymi	-11.0746
boywantstohear	-11.0747
▁talent	-11.0748
▁pair	-11.0752
▁identity	-11.0754
▁accidentally	-11.0762
▁perry	-11.0766
▁rent	-11.0766
jake	-11.0767
ple	-11.0771
dir	-11.0773
▁liked	-11.0774
▁generation	-11.0777
roy	-11.0778
▁pushes	-11.0784
rated	-11.079
ink	-11.0798
▁chain	-11.08
sub	-11.0802
▁gray	-11.0812
dark	-11.0815
▁ray	-11.0816
▁luther	-11.0817
▁wit	-11.0817
▁28	-11.0817
▁authority	-11.0818
▁window	-11.0819
zel	-11.0821
▁supremacists	-11.0824
▁euro	-11.0826
▁proposes	-11.0826
▁celebrating	-11.0826
▁warn	-11.0828
gas	-11.083
▁nations	-11.0834
cool	-11.0838
blake	-11.0842
▁tweeted	-11.0842
mayy	-11.0845
▁competition	-11.0846
▁spicer	-11.0848
jason	-11.0851
▁meant	-11.0855
▁headed	-11.0856
▁kicked	-11.0856
▁users	-11.0863
voice	-11.0863
▁sweden	-11.0865
pod	-11.0865
sham	-11.0865
▁electoral	-11.0866
▁quickly	-11.0867
rib	-11.0868
▁nsa	-11.0868
▁setting	-11.087
▁bronx	-11.087
iwould	-11.0874
hur	-11.0877
faith	-11.0877
kor	-11.0878
▁solution	-11.088
djs	-11.0885
vine	-11.0886
ici	-11.0893
▁promote	-11.0893
miller	-11.0905
▁communities	-11.0906
nah	-11.0907
▁claimed	-11.0909
military	-11.0916
▁1,	-11.0917
▁interested	-11.0918
▁milk	-11.0919
tori	-11.0925
chelsea	-11.0926
trumps	-11.0927
▁fifa	-11.0928
▁memory	-11.0929
▁alt	-11.0932
▁ferguson	-11.0933
▁prayers	-11.0934
rain	-11.0934
▁penalty	-11.0936
▁rolling	-11.0941
cande	-11.0941
ify	-11.0945
iff	-11.0948
▁perfectly	-11.0949
▁bunch	-11.0951
promo	-11.0952
▁slaying	-11.0957
jun	-11.0958
▁del	-11.096
▁certain	-11.096
▁draw	-11.0962
▁enemies	-11.0962
▁kaine	-11.0963
jackson	-11.0963
hockey	-11.0965
▁lgbt	-11.0966
▁adviser	-11.0966
▁condemn	-11.0966
trap	-11.0967
ira	-11.0969
ning	-11.0972
▁ended	-11.0973
▁dui	-11.0973
▁weren	-11.0975
▁shout	-11.0976
▁wichita	-11.0976
▁jews	-11.0977
survivaltips	-11.098
▁nightmare	-11.0984
woo	-11.0985
▁reacts	-11.0992
pot	-11.0993
anthony	-11.0993
human	-11.0994
flo	-11.0999
magic	-11.1
uri	-11.1
bby	-11.1
dup	-11.1007
▁kellyanne	-11.1008
eri	-11.1009
bit	-11.1012
bul	-11.1015
opiceisis	-11.1018
▁muhammad	-11.1025
selesssuperpower	-11.1027
pers	-11.1027
tina	-11.1028
arm	-11.1029
▁backs	-11.1034
▁toilet	-11.1038
set	-11.1038
▁savage	-11.1041
▁tight	-11.1042
▁heading	-11.1047
tae	-11.1051
sty	-11.1052
▁ethics	-11.1055
▁teams	-11.1057
▁lands	-11.1063
poli	-11.1063
aff	-11.1064
▁playoff	-11.1065
▁pepper	-11.1066
protest	-11.1069
▁knowing	-11.1086
check	-11.1087
nis	-11.1087
▁assad	-11.1088
cosproject	-11.1092
▁hitting	-11.1094
▁apologizes	-11.1099
think	-11.1102
ufc	-11.1104
▁flip	-11.1112
▁desperate	-11.1112
▁vehicles	-11.1114
aaaa	-11.1115
summer	-11.1117
paige	-11.112
army	-11.1122
club	-11.1123
▁tony	-11.1126
gang	-11.113
▁idiots	-11.1131
▁survive	-11.1131
▁illegally	-11.1133
walk	-11.1136
iceisis	-11.1141
cub	-11.1143
▁wildfire	-11.1144
chin	-11.1146
▁finals	-11.1147
▁deputies	-11.1149
▁monitor	-11.1149
▁sore	-11.115
liv	-11.1157
▁pokemon	-11.1157
▁stunning	-11.1159
funny	-11.116
lov	-11.1162
▁upon	-11.1164
▁911	-11.1169
▁inter	-11.117
▁projects	-11.117
▁arab	-11.1173
▁products	-11.1174
▁irma	-11.1178
000	-11.1184
dean	-11.1184
▁howard	-11.1186
▁looked	-11.1189
▁rebel	-11.119
lift	-11.1191
votetrump	-11.1193
fran	-11.1198
bank	-11.12
gre	-11.1203
roc	-11.1205
ide	-11.121
patriots	-11.1212
save	-11.1217
▁deliver	-11.1218
▁honestly	-11.1218
most	-11.1219
wright	-11.1222
▁assaulted	-11.1223
▁har	-11.1226
▁grant	-11.1233
▁winners	-11.1235
pra	-11.1236
🚨	-11.124
▁william	-11.1241
▁comedy	-11.1243
▁hoax	-11.1244
▁cameron	-11.1245
▁catholic	-11.1246
mai	-11.1247
healthy	-11.1248
▁josh	-11.125
▁income	-11.1254
▁celebrities	-11.1255
linda	-11.1256
▁hoping	-11.1256
▁ross	-11.1257
▁asian	-11.1259
▁division	-11.1262
wiunion	-11.1263
▁collection	-11.1263
▁threaten	-11.1271
▁sta	-11.1277
▁fantasy	-11.1279
▁bottle	-11.128
▁conditions	-11.1282
▁solve	-11.1286
▁starbucks	-11.1286
▁feb	-11.1288
resistance	-11.1288
▁destruction	-11.1293
▁grandma	-11.1299
▁madison	-11.13
▁fighter	-11.1301
abby	-11.1306
▁cavs	-11.1313
daddy	-11.1314
moo	-11.1315
▁dam	-11.1318
▁wrap	-11.132
annie	-11.1321
born	-11.1323
wild	-11.1329
cry	-11.1334
lopez	-11.1336
stan	-11.134
rev	-11.1341
terrorism	-11.1342
rav	-11.1342
▁option	-11.1342
▁id	-11.1343
jai	-11.1344
▁ignorant	-11.1345
▁bomber	-11.1346
fam	-11.1346
▁athletes	-11.1346
▁suspicious	-11.1347
▁lights	-11.1353
▁legs	-11.1354
▁bolling	-11.1356
▁flights	-11.1358
guardian	-11.136
juan	-11.1362
▁23	-11.1368
mur	-11.1369
short	-11.137
▁quality	-11.1376
▁bans	-11.1381
design	-11.1381
olo	-11.1382
▁flags	-11.1396
ear	-11.1398
artist	-11.14
▁offered	-11.1406
▁prefer	-11.1409
ole	-11.1409
▁flow	-11.141
▁clown	-11.1413
▁patients	-11.1414
flower	-11.1416
▁socialist	-11.1422
▁bust	-11.1425
▁glass	-11.1427
yan	-11.1427
▁vice	-11.1429
▁dossier	-11.1429
▁purchase	-11.1429
ugh	-11.1432
▁emotional	-11.1437
▁flat	-11.1439
▁mentally	-11.1442
jae	-11.1444
▁ashley	-11.1444
▁compares	-11.1447
▁riot	-11.1448
▁rnc	-11.1448
tip	-11.1449
▁squad	-11.1449
▁passenger	-11.1451
aniss	-11.1452
▁poverty	-11.1453
▁lazy	-11.1456
▁whoa	-11.1456
million	-11.1463
▁invest	-11.1464
vero	-11.1467
sip	-11.1467
online	-11.1467
▁mag	-11.1468
▁conviction	-11.1472
shy	-11.1472
▁beyonce	-11.1474
▁troll	-11.1477
▁hidden	-11.1484
china	-11.1484
▁saving	-11.1485
▁spain	-11.1486
sand	-11.1487
brand	-11.1488
▁sued	-11.1492
▁measure	-11.1493
mate	-11.1494
▁bullet	-11.1494
▁tiger	-11.1495
▁neighbor	-11.1497
▁sparks	-11.1498
▁bars	-11.1498
belle	-11.1499
movie	-11.15
▁bulls	-11.1503
▁conway	-11.1505
gab	-11.1506
clariss	-11.1506
social	-11.1507
ora	-11.1513
▁✔	-11.1513
cfm	-11.1517
▁customers	-11.1519
▁harm	-11.152
ene	-11.1522
nta	-11.1526
wow	-11.1528
▁submit	-11.1529
bert	-11.1539
▁dancing	-11.1541
▁wayne	-11.1542
▁destroying	-11.1542
▁file	-11.1548
gor	-11.1551
▁apply	-11.1552
wit	-11.1554
▁preparing	-11.1556
alexa	-11.1557
▁lion	-11.1557
rub	-11.1559
ota	-11.156
▁playlist	-11.1569
page	-11.157
▁limits	-11.1572
mama	-11.1574
imp	-11.1575
ave	-11.1575
▁adults	-11.1577
▁symbol	-11.1578
link	-11.1581
sey	-11.1584
▁finished	-11.1584
dance	-11.1586
blacktolive	-11.1589
▁draws	-11.1589
wtf	-11.1591
lion	-11.1593
omg	-11.1596
▁raiders	-11.1596
rmywomenproblems	-11.1599
▁revenue	-11.1599
hou	-11.1601
nam	-11.1601
two	-11.1602
kev	-11.1605
▁ap	-11.1609
!!!!!	-11.161
▁involving	-11.161
▁tournament	-11.161
▁tarmac	-11.161
▁sharks	-11.1611
▁medal	-11.1614
friday	-11.1614
▁francis	-11.1615
lid	-11.1617
▁discovered	-11.1621
kir	-11.1633
▁49	-11.1635
gle	-11.1638
rtywentwrongwhen	-11.1639
▁mob	-11.1641
own	-11.1642
▁lesson	-11.1644
megan	-11.1645
▁standard	-11.1648
▁topeka	-11.1654
▁kurdish	-11.1655
▁backlash	-11.1656
▁images	-11.1657
▁burned	-11.1659
▁pin	-11.1663
▁parent	-11.1664
▁racists	-11.1665
sunday	-11.1665
▁handler	-11.1667
▁bible	-11.167
▁👉	-11.1671
▁panthers	-11.1675
▁funded	-11.1677
▁harris	-11.1677
morning	-11.1679
lit	-11.1679
putin	-11.1683
▁bold	-11.1683
▁nasa	-11.1684
▁bottom	-11.1684
abrams	-11.1687
▁announcement	-11.1687
▁areas	-11.1689
bury	-11.1689
007	-11.169
death	-11.17
▁roy	-11.1706
▁reaches	-11.1707
▁taliban	-11.1707
😂	-11.171
kell	-11.171
dec	-11.1711
mix	-11.1711
▁alien	-11.1716
★	-11.1717
olivia	-11.1717
christmas	-11.1718
▁recount	-11.172
▁slaves	-11.172
acab	-11.1721
▁writer	-11.1722
drew	-11.1723
!”	-11.1725
▁package	-11.1725
inc	-11.1731
dam	-11.1732
part	-11.1742
▁founder	-11.1742
▁netanyahu	-11.1743
pal	-11.1743
▁documentary	-11.1751
▁unveils	-11.1754
▁easier	-11.1761
▁cuomo	-11.1761
▁causing	-11.1761
dun	-11.1763
hil	-11.1763
▁divide	-11.1765
ual	-11.1766
▁professional	-11.1768
▁dave	-11.1769
▁february	-11.177
▁acosta	-11.1775
aki	-11.1788
zen	-11.1792
▁trap	-11.1793
▁jar	-11.1793
▁fights	-11.1794
ifiwereyourmom	-11.1794
ngsdonebymistake	-11.1794
▁awan	-11.1796
sanctuary	-11.1803
▁adorable	-11.1805
▁dump	-11.1805
▁argue	-11.1807
exo	-11.1808
▁carrying	-11.1808
matthew	-11.1814
▁counsel	-11.1816
▁nick	-11.182
▁hungry	-11.1821
▁discover	-11.1821
fully	-11.1822
tie	-11.1822
▁levels	-11.1822
united	-11.1822
monday	-11.1823
dems	-11.1825
▁independence	-11.1829
vision	-11.1834
▁mill	-11.1836
sad	-11.1838
eller	-11.1838
▁meanwhile	-11.1838
clo	-11.1838
▁unite	-11.184
mba	-11.1842
▁concern	-11.1845
▁southwest	-11.1846
▁sox	-11.1849
speakerryan	-11.1851
▁notes	-11.1853
▁testing	-11.1857
growingupwith	-11.186
▁highlights	-11.1861
▁coal	-11.1862
mma	-11.1864
ida	-11.187
washingtonpost	-11.1872
▁slam	-11.1873
▁cutting	-11.1873
▁mirror	-11.1874
▁rates	-11.1875
▁nevada	-11.1876
▁jets	-11.1877
hee	-11.1878
michelle	-11.1879
▁italian	-11.1882
aro	-11.1884
mcc	-11.1884
▁anybody	-11.1885
▁creates	-11.1885
should	-11.1886
▁sucks	-11.1888
austin	-11.1889
adi	-11.1889
burg	-11.1891
▁relations	-11.1893
kitty	-11.1896
▁adds	-11.1897
11:	-11.1898
eat	-11.1899
hair	-11.1905
guncontrol	-11.1905
▁neighbors	-11.1905
▁investment	-11.1905
jus	-11.1908
din	-11.1911
▁moscow	-11.1914
▁spurs	-11.1914
ddep	-11.1915
▁secure	-11.1917
▁wanting	-11.1917
▁signing	-11.192
cin	-11.1922
fre	-11.1925
▁embrace	-11.1926
thewhiterabbit	-11.1937
▁flee	-11.194
dic	-11.1947
oma	-11.1957
eezy	-11.1963
ack	-11.1965
▁confirm	-11.197
nerd	-11.1971
mea	-11.1972
late	-11.1973
▁quiet	-11.1974
ified	-11.1975
▁infant	-11.1984
▁pan	-11.1987
▁delivers	-11.1987
▁gorsuch	-11.1989
cup	-11.199
▁balance	-11.199
wednesdaywisdom	-11.1993
▁cousin	-11.1993
ferguson	-11.1995
cus	-11.1996
▁jesse	-11.1997
▁arrives	-11.1997
▁duke	-11.2007
▁sisters	-11.2008
emms	-11.2014
▁phil	-11.2017
420	-11.2023
ayy	-11.2023
julia	-11.2024
▁expansion	-11.2026
▁basically	-11.2026
gam	-11.2026
kra	-11.2029
▁logic	-11.203
zoe	-11.203
▁solar	-11.203
class	-11.2034
▁oppose	-11.2037
lexi	-11.2039
ston	-11.204
▁champion	-11.2042
▁✅	-11.2043
bailey	-11.2045
▁offering	-11.2049
▁corporate	-11.2057
▁raising	-11.206
▁cavaliers	-11.2061
aca	-11.2061
▁score	-11.2063
▁amount	-11.2064
▁theater	-11.2065
ess	-11.2067
и	-11.2068
stand	-11.2071
▁afternoon	-11.2073
▁loose	-11.2086
▁confused	-11.2092
girls	-11.2092
▁jefferson	-11.2094
▁nato	-11.2095
▁impossible	-11.2095
wiz	-11.21
cla	-11.2102
▁uranium	-11.2105
lucy	-11.2107
▁swing	-11.2108
▁swear	-11.2114
debb	-11.2116
▁patrick	-11.2119
▁computer	-11.212
▁suv	-11.2123
▁tie	-11.2124
▁wash	-11.2127
▁editorial	-11.2127
ananavarro	-11.2127
court	-11.2131
/17	-11.2131
▁followed	-11.2132
stock	-11.2135
▁badly	-11.2138
fair	-11.2139
▁active	-11.214
ock	-11.2145
sue	-11.2147
nell	-11.2152
break	-11.2153
▁hosts	-11.2154
alert	-11.2155
jee	-11.2156
▁tank	-11.2156
utter	-11.216
▁vigil	-11.2161
▁treason	-11.2161
▁wreck	-11.2162
wig	-11.2164
worth	-11.2166
▁allowing	-11.2169
slim	-11.2169
nevertrump	-11.2171
ien	-11.2172
▁nra	-11.2173
▁swift	-11.2175
pic	-11.2178
▁bio	-11.2179
▁brussels	-11.2185
bed	-11.2185
ative	-11.2187
ned	-11.2191
▁connect	-11.2193
▁reporters	-11.2195
jab	-11.2195
▁lay	-11.2207
▁op	-11.2208
span	-11.2211
▁sweat	-11.2214
▁comic	-11.2215
bea	-11.2217
wethepeople	-11.2218
▁nah	-11.222
▁recalls	-11.222
chel	-11.2223
shaw	-11.2225
gag	-11.2229
▁controversial	-11.2229
▁fought	-11.2229
lam	-11.2232
future	-11.2235
diva	-11.2236
podernfamily	-11.2241
▁2012	-11.2245
▁kenya	-11.2245
▁«	-11.2247
▁wood	-11.2248
def	-11.2249
▁shift	-11.2253
inthe	-11.2253
▁mode	-11.2253
▁ruin	-11.2254
bryan	-11.2254
dallas	-11.2255
911	-11.2255
gger	-11.2255
▁deny	-11.2256
ech	-11.2257
▁trick	-11.2261
bean	-11.2261
▁receives	-11.2261
▁production	-11.2269
▁????	-11.2277
▁meme	-11.2278
▁taxpayer	-11.2282
▁firefighter	-11.2283
▁hike	-11.2283
tax	-11.2284
▁gains	-11.2284
nothing	-11.2285
jean	-11.2286
vvma	-11.2286
nay	-11.2287
▁pelicans	-11.2288
allen	-11.2288
iri	-11.2292
involved	-11.2294
▁wings	-11.2295
sof	-11.2296
▁direction	-11.2301
izzle	-11.2303
▁investigators	-11.2306
bud	-11.2307
▁sugar	-11.2307
▁reached	-11.2307
stephen	-11.2311
paris	-11.2313
▁vol	-11.2318
fla	-11.2323
▁selfie	-11.233
deep	-11.2331
▁arpaio	-11.2332
gem	-11.2333
quo	-11.2335
▁written	-11.2335
bum	-11.2339
▁delete	-11.2341
offend	-11.2342
mybestfriend	-11.2344
▁clinic	-11.2346
▁allows	-11.2354
prefertoforget	-11.2356
▁possibly	-11.2356
▁harder	-11.2368
mosul	-11.2373
▁furious	-11.2373
▁rapist	-11.2377
sometimesitsokto	-11.2379
lets	-11.2379
debes	-11.238
zie	-11.238
▁chant	-11.2385
dawg	-11.2385
▁disagree	-11.2388
sav	-11.239
▁fla	-11.239
▁earlier	-11.239
dre	-11.2393
▁joining	-11.2401
adrian	-11.2401
▁ignoring	-11.2402
▁arena	-11.2403
▁owned	-11.2408
▁deportation	-11.2413
▁pie	-11.2414
kins	-11.2415
▁evacuated	-11.2418
rox	-11.2419
▁fury	-11.2421
trans	-11.2422
▁patient	-11.2423
▁jenner	-11.2423
dope	-11.2428
▁schultz	-11.2429
bush	-11.2429
▁2016:	-11.243
▁mon	-11.243
▁philippines	-11.2432
▁fda	-11.2432
duc	-11.2437
▁unknown	-11.2442
ridge	-11.2443
▁below	-11.2443
▁podesta	-11.2445
crazy	-11.2452
garcia	-11.2455
hom	-11.2457
dur	-11.2459
hawk	-11.246
▁divorce	-11.246
▁controversy	-11.246
mid	-11.2461
▁shocked	-11.2462
▁print	-11.2463
▁losers	-11.2464
lover	-11.2467
orlando	-11.2467
▁panic	-11.2474
dirty	-11.2478
▁johnny	-11.2481
▁mama	-11.2482
▁reduce	-11.2484
nate	-11.2486
times	-11.2486
▁warned	-11.2488
▁heaven	-11.2491
▁confidence	-11.2491
goddess	-11.2496
cli	-11.2496
cis	-11.2496
hat	-11.2497
▁taught	-11.2497
▁ghost	-11.2501
▁overdose	-11.2507
shay	-11.2509
iel	-11.2512
▁bacon	-11.2512
▁baton	-11.2514
richard	-11.2516
💥	-11.2516
▁spoke	-11.2517
natalie	-11.2521
▁salute	-11.2526
▁blocking	-11.2528
▁creating	-11.2531
hannity	-11.2532
emmss	-11.2533
▁lindsey	-11.2534
▁toxic	-11.2539
nnn	-11.2542
▁seconds	-11.2542
▁stronger	-11.2543
aaron	-11.2543
hunter	-11.2546
mph	-11.2551
claire	-11.2552
▁bae	-11.2553
retweet	-11.2554
▁nap	-11.2555
▁💥	-11.2557
▁spike	-11.2557
▁slide	-11.256
place	-11.2562
rian	-11.2562
florida	-11.2563
lebratetrumpwith	-11.2566
kal	-11.2568
▁pal	-11.2568
pet	-11.2568
▁grace	-11.2577
▁pac	-11.2578
777	-11.2582
resolution	-11.2584
▁ignored	-11.2587
pig	-11.2588
▁lucky	-11.2591
lab	-11.2594
hama	-11.2596
▁rouge	-11.2601
syrian	-11.2602
▁ag	-11.2602
umb	-11.2602
▁server	-11.2604
▁scary	-11.2609
south	-11.2611
▁scare	-11.2611
ona	-11.2612
hoodiefortrayvon	-11.2613
】	-11.2613
▁daddy	-11.2615
▁unit	-11.262
▁merry	-11.2624
ong	-11.2625
▁headline	-11.2626
▁hackers	-11.2627
▁proven	-11.2627
bam	-11.2629
▁elite	-11.2629
sho	-11.2632
▁journey	-11.2633
▁appearance	-11.2637
▁japanese	-11.2637
being	-11.264
▁royal	-11.2642
und	-11.2645
obi	-11.2645
elins	-11.2646
geo	-11.2646
▁clarke	-11.2652
▁locked	-11.2652
▁wealth	-11.2655
fight	-11.2659
wee	-11.2659
gul	-11.2659
▁afford	-11.266
pul	-11.2663
▁dating	-11.2663
arccy	-11.2667
alice	-11.2667
kno	-11.267
▁morgan	-11.2678
888	-11.2684
▁maria	-11.2684
▁suffer	-11.2689
gum	-11.269
▁hateful	-11.269
▁classified	-11.2691
▁considered	-11.2692
gram	-11.2693
hashtagroundup	-11.2696
▁studio	-11.2698
▁editor	-11.2699
▁bitches	-11.2699
▁mistakes	-11.2699
vel	-11.2699
bull	-11.2701
▁library	-11.2702
▁blues	-11.2702
steven	-11.2707
▁manhattan	-11.2708
▁september	-11.2708
▁routine	-11.2709
▁【	-11.271
▁obvious	-11.2715
▁wal	-11.2716
gua	-11.2719
▁rhetoric	-11.272
thingsnott	-11.272
▁slip	-11.2721
▁blackhawks	-11.2723
▁crossing	-11.2724
yemen	-11.2729
alan	-11.2731
▁skills	-11.2732
tips	-11.2733
nab	-11.2734
ory	-11.2734
▁mixtape	-11.2736
street	-11.2736
▁usually	-11.2737
beeth	-11.2737
oil	-11.2739
▁nuke	-11.2739
▁mostly	-11.2742
fec	-11.2742
▁apology	-11.2744
reasonstoleaveeu	-11.2744
evil	-11.2745
▁transition	-11.2746
ricky	-11.2749
erika	-11.2751
weight	-11.2753
▁erdogan	-11.2754
ape	-11.2755
clarri	-11.2756
brianstelter	-11.2756
▁taiwan	-11.2756
lewis	-11.2757
▁math	-11.2761
shan	-11.2763
▁candy	-11.2765
emel	-11.2768
▁suck	-11.277
▁rolls	-11.2771
▁commissioner	-11.2776
▁mock	-11.2778
rou	-11.2781
▁emanuel	-11.2782
fen	-11.2787
▁hired	-11.2792
▁disgraced	-11.2792
▁exposing	-11.2793
▁northwest	-11.2797
hphd	-11.2799
▁retired	-11.2802
ability	-11.2803
zar	-11.2806
▁gap	-11.281
mak	-11.2819
▁forgotten	-11.2822
britt	-11.2825
▁khan	-11.2825
lissl	-11.2826
ign	-11.2827
pit	-11.2827
▁fam	-11.283
blo	-11.2832
▁stein	-11.2834
sport	-11.2835
sil	-11.2836
prison	-11.284
▁memo	-11.2841
▁hatred	-11.2842
bridge	-11.2844
▁cheer	-11.2845
▁expose	-11.2846
cali	-11.2847
▁include	-11.2849
bye	-11.285
🏾	-11.285
lib	-11.2855
▁investigated	-11.2856
damn	-11.2856
▁assaulting	-11.2858
▁300	-11.2858
▁butler	-11.286
▁delivery	-11.286
▁29	-11.2863
▁feminist	-11.2864
nae	-11.2867
ology	-11.2871
▁kardashian	-11.2872
mes	-11.2872
▁hunter	-11.2875
pickuplines	-11.2875
▁legislature	-11.2877
▁cocaine	-11.2877
▁tackle	-11.2878
tlot	-11.2878
brandon	-11.288
▁easter	-11.2884
voc	-11.2885
nine	-11.2889
▁attacker	-11.2889
calle	-11.2891
▁debbie	-11.2891
▁robber	-11.2892
▁equality	-11.2892
▁nor	-11.2894
says	-11.29
julie	-11.2902
▁bishop	-11.2904
▁universe	-11.2906
▁donor	-11.2907
▁inspired	-11.2909
kem	-11.291
▁necessary	-11.2915
▁honey	-11.2917
forever	-11.2918
▁ignores	-11.2918
doo	-11.2919
▁challenges	-11.2921
▁estate	-11.2923
▁monument	-11.2923
▁2013	-11.2927
feat	-11.2929
him	-11.293
aging	-11.2936
iah	-11.2936
ellie	-11.2937
▁gore	-11.2938
▁agencies	-11.2938
hhh	-11.294
▁hamilton	-11.2942
▁mitt	-11.2943
▁unmasking	-11.2943
▁mlb	-11.2948
▁lawrence	-11.2949
loss	-11.2953
ego	-11.2954
▁snapchat	-11.2957
abcnews	-11.2958
primary	-11.2962
sdf	-11.2962
wick	-11.2968
dor	-11.2971
▁deported	-11.2974
TM	-11.2975
▁succeed	-11.2975
imwithher	-11.2976
pping	-11.2977
▁burglary	-11.2978
mul	-11.2978
err	-11.298
adcat	-11.2981
▁greater	-11.2986
▁stood	-11.2988
▁serving	-11.2989
▁humanity	-11.2991
▁raping	-11.2991
arian	-11.2992
▁fully	-11.2994
ese	-11.2996
▁shall	-11.2997
▁hurts	-11.2997
signsyouare	-11.3
▁spanish	-11.3
▁hispanic	-11.3002
prayfor	-11.3005
▁memphis	-11.3009
▁charter	-11.301
▁lions	-11.301
aughtatschool	-11.3012
kia	-11.3014
mtv	-11.3014
courtney	-11.3015
travel	-11.3017
elo	-11.3023
▁minority	-11.3025
vanjones	-11.3026
▁copy	-11.3027
▁tip	-11.3027
▁disgrace	-11.3028
▁discussion	-11.303
wilson	-11.3031
duh	-11.3033
▁christ	-11.3035
hashtag	-11.3035
mashable	-11.3037
▁freed	-11.304
electionday	-11.3042
want	-11.3042
▁kicks	-11.3042
▁lift	-11.3044
leah	-11.3045
▁garbage	-11.3048
cnni	-11.3049
witch	-11.3049
▁audience	-11.3049
▁dry	-11.3054
▁yep	-11.3057
▁marks	-11.3062
▁wing	-11.3065
▁throws	-11.3066
charles	-11.3069
itturnedawkward	-11.3074
▁kidnapping	-11.3074
dick	-11.3076
▁70	-11.308
ibd	-11.3082
▁rev	-11.3083
kei	-11.3085
kara	-11.3086
▁butter	-11.3089
▁throwing	-11.309
▁freak	-11.3095
bai	-11.3097
climatechange	-11.3099
hav	-11.3102
foot	-11.3103
▁pig	-11.3108
▁bang	-11.3123
eeee	-11.3123
▁walks	-11.3124
after	-11.3124
▁affect	-11.3125
▁backing	-11.3131
ander	-11.3133
shaunking	-11.3137
▁breath	-11.3141
▁progressive	-11.3143
sti	-11.3143
cio	-11.3149
▁ourselves	-11.315
lap	-11.315
▁celebration	-11.3151
▁monster	-11.3151
vee	-11.3155
▁nuts	-11.3158
donlemon	-11.3162
▁anywhere	-11.3164
france	-11.3165
▁approve	-11.3165
tisda	-11.3166
loves	-11.3166
deal	-11.317
▁trillion	-11.3174
hold	-11.318
▁chairman	-11.3181
▁⚡	-11.3186
dig	-11.3186
▁southeast	-11.3188
elizs	-11.3191
▁served	-11.3195
poe	-11.3196
rights	-11.3196
womensmarch	-11.3199
wel	-11.3201
▁register	-11.3207
beau	-11.3208
cav	-11.3209
▁honors	-11.3209
▁covering	-11.3209
▁satan	-11.3211
zak	-11.3213
▁nightclub	-11.3214
▁blessed	-11.3214
kam	-11.322
▁reds	-11.3224
▁clip	-11.3229
▁🔥	-11.3231
▁acts	-11.3235
dade	-11.3236
ingsiwontbelieve	-11.3237
▁premiere	-11.3242
uff	-11.3247
▁dealing	-11.3247
▁cheat	-11.3248
wellwordswouldbe	-11.3249
▁testimony	-11.3249
▁restore	-11.3252
▁princess	-11.3253
▁nov	-11.3254
▁fundraiser	-11.3262
brad	-11.3263
▁nose	-11.3265
dude	-11.3268
oon	-11.3271
▁berlin	-11.3274
aly	-11.3278
ofthe	-11.3278
▁rec	-11.3282
debates	-11.3284
▁extreme	-11.3285
ihateitwhen	-11.3287
▁supply	-11.3288
glf	-11.3293
▁seize	-11.3296
joshua	-11.3302
▁options	-11.3305
▁kate	-11.3305
sophie	-11.3306
duty	-11.3307
▁ole	-11.3309
▁vp	-11.3309
▁cancel	-11.331
earth	-11.331
▁paso	-11.3312
▁removal	-11.3313
▁meth	-11.3314
▁spreading	-11.332
▁transform	-11.3322
▁piss	-11.3323
ight	-11.3324
tosavemoneyi	-11.3325
alba	-11.3325
▁circle	-11.333
▁academy	-11.3337
▁somali	-11.3339
▁button	-11.3339
▁admitted	-11.3339
▁demanding	-11.3343
▁1000	-11.3344
aba	-11.3345
sau	-11.3352
▁commute	-11.3352
▁mystery	-11.3353
▁cons	-11.3356
ably	-11.3358
▁sort	-11.3359
▁dm	-11.3359
▁motorcycle	-11.3364
andersoncooper	-11.3364
fred	-11.3364
jet	-11.3366
▁aaron	-11.3371
▁silver	-11.3372
mie	-11.3375
▁memories	-11.3383
ariana	-11.3383
▁thrown	-11.3383
▁surge	-11.3385
ifi	-11.3385
npr	-11.3387
▁outbreak	-11.3387
▁critically	-11.3388
▁freeway	-11.339
must	-11.3391
▁skip	-11.3391
louis	-11.3391
▁staffer	-11.3392
rom	-11.3395
kon	-11.3396
louise	-11.3397
▁programs	-11.3397
ellen	-11.34
wolfblitzer	-11.3402
▁facility	-11.3402
danielle	-11.3405
▁passion	-11.3407
▁alaska	-11.3407
▁shore	-11.3408
nch	-11.3411
▁airstrikes	-11.3411
▁retirement	-11.3416
▁transfer	-11.3416
front	-11.3418
▁gulf	-11.3418
▁1,000	-11.3419
🔥	-11.342
▁huh	-11.3426
▁ceremony	-11.3428
????	-11.3429
▁balls	-11.3429
▁fireworks	-11.343
▁semi	-11.343
▁huma	-11.3431
gary	-11.3432
haa	-11.3436
▁rail	-11.3437
gus	-11.3437
▁paint	-11.3441
▁supported	-11.3441
▁wooow	-11.3441
▁crackdown	-11.3441
molly	-11.3442
tommy	-11.3442
▁holder	-11.3444
exp	-11.3451
▁comeback	-11.3451
▁delusional	-11.3454
▁kyle	-11.3454
thanksgiving	-11.3455
▁courage	-11.3456
winning	-11.3457
jin	-11.3457
▁nude	-11.3458
▁utah	-11.3458
spo	-11.346
▁par	-11.346
▁barry	-11.3461
▁albuquerque	-11.3466
▁avenue	-11.3467
▁crown	-11.3467
▁duck	-11.3469
▁caucus	-11.3471
▁drag	-11.3473
▁judges	-11.3477
▁makeup	-11.348
hus	-11.348
tour	-11.348
▁corner	-11.3484
▁spray	-11.3487
motiv	-11.3489
▁fav	-11.3492
▁nasty	-11.3493
cel	-11.3495
▁represent	-11.3504
www	-11.3505
ato	-11.3505
▁shadow	-11.3507
▁older	-11.3509
paw	-11.3513
▁random	-11.3517
▁chip	-11.3518
▁rahm	-11.3519
hos	-11.352
▁sch	-11.3521
khan	-11.3522
phone	-11.3529
▁dropping	-11.353
▁currently	-11.353
always	-11.3531
▁devil	-11.354
▁jared	-11.3541
rat	-11.3545
▁kimmel	-11.3546
▁recognize	-11.3547
▁valentine	-11.355
▁forest	-11.3552
zee	-11.3555
▁excellent	-11.3557
▁400	-11.3563
▁burger	-11.3564
▁linda	-11.357
▁manning	-11.3574
о	-11.3579
▁aircraft	-11.3584
▁pension	-11.3585
▁painting	-11.3586
chick	-11.3588
▁motivation	-11.3594
rrzgbccxbo	-11.3596
angle	-11.3597
1%	-11.3597
mbo	-11.3598
▁illness	-11.3598
▁capture	-11.3605
fry	-11.3609
▁urban	-11.3609
▁hole	-11.361
▁jihad	-11.3612
▁comedian	-11.3622
▁sin	-11.3624
books	-11.3625
leader	-11.364
▁🤔	-11.3643
▁asap	-11.3645
homs	-11.3649
▁expand	-11.3652
lite	-11.3652
▁murray	-11.3658
▁plead	-11.3658
cen	-11.3658
▁royals	-11.3661
▁inmates	-11.3663
▁solid	-11.3671
lope	-11.3672
▁labour	-11.3676
riot	-11.3678
▁resolution	-11.3679
sburg	-11.368
▁angela	-11.3683
▁chose	-11.3687
▁markets	-11.3688
▁revenge	-11.3693
nathan	-11.3693
▁brush	-11.3694
▁transit	-11.3695
hip	-11.3696
▁tap	-11.3697
raf	-11.3699
andre	-11.3701
ihaveadreamthat	-11.3702
ferr	-11.3702
▁sum	-11.3702
kes	-11.3714
▁posting	-11.3715
▁offended	-11.3716
soph	-11.3716
zone	-11.3718
▁finger	-11.3719
▁homeland	-11.3725
▁hood	-11.3725
▁missiles	-11.3726
▁background	-11.373
▁device	-11.373
adams	-11.3736
hell	-11.3737
mik	-11.3737
hrc	-11.374
pack	-11.3741
rac	-11.3744
term	-11.3744
▁vision	-11.3745
▁briefing	-11.3745
sessions	-11.3746
▁mini	-11.3746
▁disgraceful	-11.375
rape	-11.3752
▁robot	-11.3754
jenny	-11.3756
▁lifetime	-11.3757
▁def	-11.3762
cris	-11.3762
bos	-11.3763
rel	-11.3765
chanle	-11.3766
▁devos	-11.3767
▁elementary	-11.3768
cross	-11.3768
abu	-11.3773
tryna	-11.3774
debatenight	-11.3776
▁barbmuenchen	-11.3778
chill	-11.3778
walker	-11.3779
ninja	-11.378
▁milo	-11.3783
▁presents	-11.3785
▁2008	-11.3788
ema	-11.379
six	-11.3791
▁rigged	-11.3792
snl	-11.3792
jacob	-11.3793
▁referendum	-11.3798
rice	-11.3798
▁sweep	-11.3799
▁opened	-11.3799
▁hates	-11.3799
▁recovery	-11.38
dep	-11.3801
afro	-11.3804
kiss	-11.3806
speed	-11.3806
▁suspension	-11.3808
makeamovieblack	-11.3808
riz	-11.381
lane	-11.3815
ggy	-11.3816
▁cheating	-11.3821
▁auction	-11.3821
@_	-11.3822
backed	-11.3824
▁collins	-11.383
▁minor	-11.3832
▁terms	-11.3832
fel	-11.3837
▁cult	-11.3838
dai	-11.3838
ible	-11.3839
▁yard	-11.3839
▁excuses	-11.3839
fon	-11.3839
▁tiny	-11.3844
▁collision	-11.3848
▁tillerson	-11.3848
istic	-11.3851
▁positions	-11.3853
jstine	-11.3854
las	-11.3856
▁nashville	-11.3856
joseph	-11.3858
▁powers	-11.3859
▁realjameswoods	-11.3861
▁asylum	-11.3862
▁label	-11.3863
myfar	-11.3863
kas	-11.3866
nazis	-11.3869
▁comm	-11.3872
▁jill	-11.3873
kris	-11.3874
▁tops	-11.3874
▁praying	-11.3874
▁reverse	-11.3875
rebel	-11.3878
▁indians	-11.3881
greg	-11.3884
dil	-11.3884
▁cowboys	-11.3885
▁approach	-11.3886
wcw	-11.3887
force	-11.3888
▁80	-11.3888
▁offense	-11.3889
▁published	-11.3889
▁believed	-11.3889
▁joseph	-11.3891
special	-11.3892
▁witnesses	-11.3896
▁marketing	-11.39
▁hype	-11.39
▁joint	-11.3901
gno	-11.3903
▁islamist	-11.3906
maker	-11.3906
alpha	-11.3908
india	-11.3908
▁command	-11.3908
hale	-11.391
▁passing	-11.3912
holly	-11.3913
5%	-11.3914
▁tracks	-11.3924
whit	-11.3924
▁producer	-11.3925
▁triggered	-11.3927
▁material	-11.3927
washington	-11.3928
stack	-11.3929
▁uncle	-11.3934
▁survivor	-11.3937
▁actors	-11.3937
▁tensions	-11.3939
diana	-11.394
▁anderson	-11.3946
lake	-11.3946
gui	-11.3948
dell	-11.3949
loc	-11.3949
▁connected	-11.3952
▁desire	-11.3952
ruc	-11.3952
▁landing	-11.3952
▁task	-11.3953
▁nhl	-11.3955
▁township	-11.3957
▁cameras	-11.3958
▁clock	-11.3961
▁dig	-11.3966
▁bow	-11.3969
▁depression	-11.3969
▁bernardino	-11.397
▁plenty	-11.397
▁permit	-11.397
bak	-11.3972
▁web	-11.3972
bing	-11.3973
▁msu	-11.3975
▁phones	-11.3977
ivy	-11.3977
▁harvard	-11.3977
ians	-11.3978
beck	-11.3981
itch	-11.3981
fast	-11.3983
suicide	-11.3983
▁scotus	-11.3984
▁retire	-11.3986
▁hearts	-11.3986
▁manchester	-11.3987
rug	-11.3987
▁mariners	-11.3988
away	-11.3988
▁scaramucci	-11.3988
▁aim	-11.3989
▁$7	-11.399
rage	-11.399
▁minds	-11.3993
sid	-11.3997
▁suffering	-11.3997
thingsi	-11.3997
nsa	-11.4001
▁oops	-11.4004
fal	-11.4005
▁pit	-11.4005
?”	-11.4005
soros	-11.4007
▁streak	-11.401
global	-11.4013
odd	-11.4014
por	-11.4019
asia	-11.4021
▁mask	-11.4022
▁deport	-11.4023
▁screw	-11.4024
raj	-11.4024
▁easily	-11.4024
alyssa	-11.4033
▁resistance	-11.4034
▁goodbye	-11.4037
▁harbor	-11.4038
web	-11.4039
ova	-11.4047
harris	-11.4049
▁filled	-11.4049
mail	-11.4055
▁cure	-11.4056
▁twin	-11.4057
▁stanford	-11.4058
▁captain	-11.406
writer	-11.4061
▁fucked	-11.4063
▁stretch	-11.4065
▁quote	-11.4066
▁julian	-11.4067
300	-11.4069
larry	-11.4069
mlk	-11.407
▁includes	-11.407
▁amen	-11.407
▁spotlight	-11.4073
▁hostage	-11.4076
nea	-11.4078
oscarssowhite	-11.4079
evan	-11.408
kwj	-11.408
small	-11.4084
▁obviously	-11.4085
muslims	-11.4091
▁suspends	-11.4093
isha	-11.4093
cri	-11.4096
▁odds	-11.4102
▁thankful	-11.4103
share	-11.4103
wonder	-11.4104
hole	-11.4106
patrick	-11.4108
shannon	-11.4109
▁greg	-11.4109
rell	-11.4118
▁lineup	-11.4119
▁lib	-11.4119
omi	-11.412
▁legislation	-11.412
related	-11.412
▁malcolm	-11.412
north	-11.4122
▁cancels	-11.4122
▁invite	-11.4122
nina	-11.4123
▁larry	-11.4126
sia	-11.4128
▁arkansas	-11.4134
andrea	-11.4134
ius	-11.4137
uber	-11.4139
nom	-11.4141
nasty	-11.4141
rry	-11.4144
rina	-11.4144
hag	-11.4145
augh	-11.4145
nbcnews	-11.4146
arbt	-11.4148
cast	-11.4148
zac	-11.415
▁anchor	-11.415
fri	-11.4152
▁realized	-11.4153
▁neither	-11.4161
▁fifth	-11.4162
▁presence	-11.4162
▁fest	-11.4166
▁grows	-11.417
plu	-11.4172
marc	-11.4175
▁perhaps	-11.4175
▁customer	-11.4182
bio	-11.4183
mommy	-11.4184
▁factory	-11.4185
▁para	-11.4186
rosa	-11.4186
▁globe	-11.4187
▁billionaire	-11.4187
▁passengers	-11.4189
track	-11.4193
pon	-11.4193
nye	-11.4194
▁fate	-11.4196
▁teeth	-11.4196
▁adopt	-11.4198
▁teaching	-11.4202
▁weekly	-11.4203
illa	-11.4204
azz	-11.4209
doe	-11.4211
pha	-11.4213
stl	-11.4214
mmm	-11.4216
▁😭	-11.4216
awz	-11.4218
▁reply	-11.4218
▁shape	-11.422
▁regret	-11.422
▁counts	-11.4221
▁wise	-11.4222
susan	-11.4223
driving	-11.4226
с	-11.423
due	-11.423
▁participate	-11.4231
▁resort	-11.4231
▁drought	-11.4231
▁disrupt	-11.4233
jenna	-11.4235
▁$20	-11.4235
▁haters	-11.4235
▁feature	-11.4236
zach	-11.4237
ique	-11.4239
▁battery	-11.424
proud	-11.4244
pam	-11.4244
▁pitch	-11.4244
▁egg	-11.4244
▁casino	-11.4245
▁lovely	-11.4245
bunny	-11.4246
tgdn	-11.4255
sound	-11.4258
fax	-11.4259
ueoflibertysigns	-11.4259
▁shi	-11.4262
▁scum	-11.4262
▁remarks	-11.4264
natural	-11.427
▁embassy	-11.4272
▁uniform	-11.4273
▁similar	-11.4273
hero	-11.4274
▁ski	-11.4275
tia	-11.4279
uga	-11.4279
▁subject	-11.4287
spinrilla	-11.4287
▁tragic	-11.4288
▁est	-11.4289
baa	-11.429
▁kitchen	-11.4291
▁related	-11.4297
sol	-11.43
found	-11.4301
▁$25	-11.4301
fro	-11.4304
▁creative	-11.4307
abo	-11.4308
lav	-11.431
chuck	-11.4312
yhb	-11.4312
▁refusing	-11.4315
▁twins	-11.4316
mcg	-11.4317
▁exec	-11.4317
▁franklin	-11.4317
▁holidays	-11.4321
ghost	-11.4323
▁switch	-11.4323
making	-11.4325
▁cooking	-11.4325
▁standards	-11.4327
ely	-11.4327
▁resignation	-11.4332
bone	-11.4333
▁product	-11.4333
▁cruise	-11.4334
▁accountable	-11.4334
div	-11.4336
▁crush	-11.4336
▁mosul	-11.434
▁steph	-11.434
▁russell	-11.434
guru	-11.4342
hrs	-11.4343
lori	-11.4345
zay	-11.4346
▁suddenly	-11.4346
▁oath	-11.4347
▁serial	-11.435
▁kings	-11.4353
sher	-11.4354
bec	-11.4355
▁foster	-11.4356
▁thief	-11.4358
▁dictator	-11.4358
country	-11.4367
▁meaning	-11.4372
▁iconic	-11.4376
aga	-11.4377
▁stunt	-11.438
periscope	-11.4385
▁decade	-11.4387
perfect	-11.4387
abcgopdebate	-11.4387
pir	-11.4388
kids	-11.4389
aus	-11.4389
uck	-11.4391
hes	-11.4392
▁prompts	-11.4394
sick	-11.4395
price	-11.4397
maz	-11.44
▁tunnel	-11.44
zan	-11.4403
▁shootout	-11.4403
▁cent	-11.4404
smart	-11.4406
banana	-11.4406
▁soft	-11.4406
republican	-11.4407
▁drew	-11.441
wat	-11.4411
soo	-11.4415
▁friendship	-11.4417
rty	-11.4418
▁stance	-11.4418
aria	-11.4418
lovely	-11.442
▁prepared	-11.4421
▁edwards	-11.4424
▁ministry	-11.4428
▁genocide	-11.4428
▁hijab	-11.4429
▁banning	-11.443
▁corn	-11.4431
▁doors	-11.4432
▁nigerian	-11.4434
▁loaded	-11.4436
ppl	-11.4436
▁screaming	-11.4439
▁pacific	-11.4442
▁exposure	-11.4442
▁thompson	-11.4443
▁pee	-11.4444
nova	-11.4445
fsis	-11.4445
moe	-11.4446
▁attempts	-11.4446
nur	-11.4447
shaun	-11.4449
minute	-11.4451
zoo	-11.4452
▁bfraser	-11.4452
▁traitors	-11.4453
▁onto	-11.4453
▁messages	-11.4453
▁floods	-11.4455
▁fugitive	-11.4456
ering	-11.4459
▁chef	-11.4465
▁kennedy	-11.4466
▁atlantic	-11.4466
▁breach	-11.4469
▁fruit	-11.4469
▁swimming	-11.4471
▁commitment	-11.4473
▁sand	-11.4475
▁wounds	-11.4475
mou	-11.4479
please	-11.4482
marine	-11.4483
nky	-11.4484
▁net	-11.4485
▁retweeted	-11.4486
fol	-11.449
▁rating	-11.4491
▁ignorance	-11.4495
▁myth	-11.4497
▁staying	-11.4497
▁jennifer	-11.4499
oscarnominations	-11.4499
arianagrande	-11.4499
▁beef	-11.45
beas	-11.4503
asa	-11.4506
leslie	-11.4506
lik	-11.4509
▁tornado	-11.451
lau	-11.4512
▁rival	-11.4513
▁credibility	-11.4514
▁grateful	-11.4515
▁electric	-11.4516
▁sept	-11.4518
podcast	-11.4521
aopp	-11.4522
▁penguins	-11.4523
connor	-11.4523
▁oct	-11.4526
▁mixed	-11.4527
💕	-11.4528
▁breast	-11.4529
things	-11.4529
izzy	-11.453
lucas	-11.4532
edm	-11.4532
mig	-11.4536
▁invited	-11.4537
▁asia	-11.4537
▁abandoned	-11.4537
▁stops	-11.4543
▁selfies	-11.4546
2%	-11.4549
?????	-11.4551
▁regional	-11.4553
▁core	-11.4553
phy	-11.4555
▁fantastic	-11.4557
renewus	-11.4557
▁silk	-11.4557
vul	-11.4558
stu	-11.4559
▁recording	-11.4559
lei	-11.456
▁humans	-11.4562
▁neck	-11.4562
▁execution	-11.4562
och	-11.4562
gio	-11.4563
▁idk	-11.4563
alicia	-11.4564
pray	-11.4564
jobs	-11.4564
eck	-11.4566
keeper	-11.4566
comedy	-11.4568
▁promised	-11.4571
▁expensive	-11.4571
rhi	-11.4572
umm	-11.4573
photos	-11.4573
▁escaped	-11.4576
▁greet	-11.4581
▁featured	-11.4583
▁carrier	-11.4584
famous	-11.4584
lockherup	-11.4586
raven	-11.4587
renee	-11.4587
▁donation	-11.4591
roe	-11.4595
▁sur	-11.46
bluelivesmatter	-11.46
inter	-11.4604
▁timeline	-11.4606
▁seanhannity	-11.4608
rig	-11.461
demi	-11.4611
▁steven	-11.4611
weare	-11.4612
wah	-11.4612
▁dressed	-11.4612
abs	-11.4614
▁limited	-11.4616
ceo	-11.4616
▁♀	-11.4618
▁genius	-11.462
▁pounds	-11.4625
🏽	-11.4628
▁pursuit	-11.4629
▁jeanine	-11.463
peach	-11.463
▁bbc	-11.4631
▁militant	-11.4636
▁barcelona	-11.4636
▁chi	-11.4639
▁prisoners	-11.4642
▁giuliani	-11.4643
msg	-11.4644
bostick	-11.4645
clean	-11.4646
bry	-11.465
scar	-11.4651
▁ron	-11.4655
krzbjh	-11.4658
▁twist	-11.466
spi	-11.4661
▁lab	-11.4663
xox	-11.4671
asi	-11.4672
▁weigh	-11.4675
▁recap	-11.4679
▁joined	-11.468
uzi	-11.4682
leon	-11.4686
east	-11.4687
▁affordable	-11.4689
▁assume	-11.4689
zzz	-11.4692
pine	-11.4693
▁injures	-11.4694
▁curb	-11.4697
dle	-11.4701
▁arrive	-11.4704
bris	-11.4706
▁meal	-11.4707
blackhistory	-11.471
▁corey	-11.4711
vid	-11.4711
▁accuser	-11.4711
▁satellite	-11.4716
▁wwii	-11.472
▁settle	-11.4721
yne	-11.4721
eta	-11.4721
▁walked	-11.4722
els	-11.4722
▁jerusalem	-11.4724
▁trooper	-11.4724
▁resident	-11.4724
pia	-11.4728
plan	-11.473
dailycaller	-11.4731
▁rat	-11.4737
sexy	-11.474
▁directly	-11.4741
oak	-11.4743
▁jealous	-11.4744
beingblackis	-11.4746
phd	-11.4747
2018	-11.4747
▁hanging	-11.4751
ayo	-11.4752
ike	-11.4753
▁worldwide	-11.4754
▁creator	-11.4754
▁serena	-11.4756
yer	-11.4757
hia	-11.4757
friends	-11.4758
cnnsitroom	-11.476
pta	-11.4765
▁grad	-11.4769
▁alarm	-11.4769
speak	-11.4769
▁roads	-11.4769
▁resume	-11.477
▁ruled	-11.4771
african	-11.4773
▁opioid	-11.4775
▁nationwide	-11.4775
alexx	-11.478
nau	-11.478
arrow	-11.4784
▁drain	-11.4785
wave	-11.4787
thingsto	-11.4789
▁ease	-11.4791
izz	-11.4792
▁gunpoint	-11.4794
▁ability	-11.4794
safe	-11.4798
▁koch	-11.48
fav	-11.4802
jac	-11.4803
pun	-11.4803
perry	-11.4803
▁hahaha	-11.4803
pos	-11.4804
foxandfriends	-11.4805
▁creek	-11.4805
▁typical	-11.481
▁coke	-11.4812
bound	-11.4813
▁globalist	-11.4814
▁nyt	-11.4815
▁advisor	-11.4815
▁effective	-11.4815
▁produce	-11.4816
▁ann	-11.4819
▁assistant	-11.482
▁regular	-11.4822
▁talented	-11.4822
royal	-11.4825
perez	-11.4829
▁katrina	-11.4831
full	-11.4831
▁catches	-11.4834
spa	-11.4835
ugg	-11.4835
bron	-11.4839
doll	-11.4839
lah	-11.4843
common	-11.4843
otto	-11.4844
rebecca	-11.4844
▁investors	-11.4844
sim	-11.4846
▁haram	-11.4847
▁medicaid	-11.4849
▁priest	-11.485
kil	-11.4855
▁comfort	-11.4858
fashion	-11.4858
tuesday	-11.4862
angie	-11.4862
▁oscars	-11.4864
cic	-11.4864
ification	-11.4869
▁struggles	-11.4873
▁individual	-11.4877
trust	-11.4877
▁returning	-11.488
johnny	-11.4881
▁♂	-11.4881
electionin	-11.4882
▁picked	-11.4883
wor	-11.4885
gill	-11.4886
rly	-11.4887
▁suffers	-11.4888
lynch	-11.489
ohio	-11.4891
hack	-11.4892
ics	-11.4893
starwars	-11.4893
▁★@	-11.4894
▁spotted	-11.4895
spring	-11.4895
▁torture	-11.4899
▁designed	-11.49
jamie	-11.4904
⤵	-11.4905
ome	-11.4908
▁restrictions	-11.4909
presidenttrump	-11.4909
reg	-11.4917
sos	-11.4919
tree	-11.4921
fsa	-11.4922
▁myanmar	-11.4923
▁trapped	-11.4924
▁flames	-11.4924
henry	-11.4924
▁26	-11.4925
▁bruce	-11.4927
▁awareness	-11.4928
▁hammer	-11.4929
▁daniel	-11.4929
▁murderer	-11.493
▁yoga	-11.493
▁lapd	-11.4931
plus	-11.4932
▁fees	-11.4932
thursdaythoughts	-11.4938
eigh	-11.494
▁resist	-11.494
twit	-11.4943
▁amber	-11.4943
indie	-11.4945
▁teenage	-11.4948
aan	-11.4948
mymonday	-11.495
▁amnesty	-11.4951
▁btw	-11.4952
▁thieves	-11.4953
stick	-11.4953
▁method	-11.4955
called	-11.4959
diet	-11.4963
▁gunfire	-11.4963
foe	-11.4966
gel	-11.4967
▁farmers	-11.4968
snottodoatthezoo	-11.4968
▁activity	-11.4969
▁quarterback	-11.497
elizabeth	-11.4973
▁madness	-11.4974
▁steel	-11.4975
riley	-11.4977
▁thunder	-11.498
▁blamed	-11.4981
bah	-11.499
uge	-11.4991
▁robberies	-11.4999
▁jake	-11.5001
nikki	-11.5003
kun	-11.5004
nov	-11.5006
mee	-11.501
neil	-11.5012
events	-11.5013
▁arlington	-11.5013
isisamovie	-11.5014
owl	-11.5018
▁somehow	-11.5018
▁spell	-11.5019
▁loan	-11.5025
lines	-11.5025
ender	-11.5026
▁suing	-11.5027
▁widow	-11.5029
forbes	-11.5029
demotivation	-11.503
▁poland	-11.5032
luna	-11.5032
equ	-11.5033
🏻	-11.5035
▁hosting	-11.5036
▁broad	-11.5037
mass	-11.5038
clark	-11.5039
tags	-11.5039
▁shutdown	-11.5041
enn	-11.5043
▁initiative	-11.5044
▁knock	-11.5044
zip	-11.5046
skin	-11.5055
ddle	-11.5055
mother	-11.5055
terror	-11.5056
▁samsung	-11.5059
▁deplorable	-11.5062
sci	-11.5063
push	-11.5068
geek	-11.5068
▁choices	-11.5069
mariah	-11.5069
theleadcnn	-11.5074
carter	-11.5074
beai	-11.5075
▁wil	-11.5075
▁delayed	-11.5076
every	-11.5078
lene	-11.5078
mine	-11.508
jhb	-11.5081
coming	-11.5083
block	-11.5084
pok	-11.5085
lew	-11.5086
ori	-11.509
▁billy	-11.509
audio	-11.5091
▁assist	-11.5093
ress	-11.5094
albert	-11.5095
fir	-11.5099
los	-11.5099
gray	-11.51
▁stun	-11.51
merc	-11.5103
❗	-11.5104
liberallogic	-11.5104
lian	-11.5106
▁lane	-11.5107
▁degree	-11.511
▁yea	-11.5115
dana	-11.5115
lec	-11.512
▁jane	-11.5122
▁shell	-11.5122
hir	-11.5122
jasmine	-11.5125
aja	-11.5128
pix	-11.5128
7%	-11.5129
▁whenever	-11.5131
graham	-11.5132
▁wisdom	-11.5134
nda	-11.5135
▁150	-11.5137
deplorable	-11.5145
"?	-11.5146
gon	-11.5147
3%	-11.5149
center	-11.5149
tsunacceptableto	-11.515
▁rampage	-11.515
immigration	-11.5157
▁arrived	-11.5157
beautiful	-11.5159
▁lamar	-11.516
▁fishing	-11.5162
▁mattis	-11.5164
▁trading	-11.5169
beach	-11.5172
▁shared	-11.5173
▁pissed	-11.5179
▁puppy	-11.518
buildthewall	-11.5181
▁threw	-11.5181
▁beast	-11.5182
▁rifle	-11.5182
ations	-11.5184
▁reforms	-11.5184
thug	-11.5185
▁qb	-11.5186
allwentwrongwhen	-11.5186
▁hypocrite	-11.5186
▁basic	-11.5189
▁ms	-11.5191
▁slap	-11.5191
▁reminds	-11.5195
▁bre	-11.5195
↔	-11.5196
info	-11.5198
apple	-11.5199
zhf	-11.5202
eau	-11.5203
shop	-11.5204
▁punch	-11.5205
weightloss	-11.5205
citizen	-11.5207
▁grave	-11.5208
maj	-11.5208
fed	-11.521
▁😂😂😂	-11.5212
osa	-11.5213
rhy	-11.5216
pip	-11.5217
▁mor	-11.5218
bis	-11.5219
chap	-11.5219
▁films	-11.522
▁dodge	-11.522
▁belt	-11.5221
▁cleared	-11.5222
▁neil	-11.5224
▁felony	-11.5225
▁nukes	-11.5225
▁acknowledge	-11.5227
simply	-11.5227
▁lanes	-11.5227
kap	-11.5235
haz	-11.5236
plo	-11.5237
poke	-11.524
yon	-11.524
▁fred	-11.5241
▁mum	-11.5241
dogthanking	-11.5242
▁ruined	-11.5243
▁mesa	-11.5245
▁keys	-11.5247
▁location	-11.5247
haw	-11.5248
▁bin	-11.5251
aud	-11.5251
wish	-11.5251
cash	-11.5252
▁angel	-11.5252
▁plate	-11.5257
700	-11.5257
▁parish	-11.5257
▁outraged	-11.5258
▁prop	-11.526
dum	-11.5264
▁checked	-11.5275
climate	-11.5275
▁streaming	-11.5276
▁articles	-11.5276
▁murders	-11.5281
ista	-11.5283
sale	-11.5283
luis	-11.5285
ked	-11.5288
shin	-11.5288
docrock	-11.5289
▁cultural	-11.5292
▁visa	-11.5295
dsj	-11.5296
▁panther	-11.5297
ido	-11.5299
▁hires	-11.5299
squ	-11.5299
▁luke	-11.53
▁gif	-11.5307
▁acc	-11.531
maa	-11.5312
bren	-11.5313
thanks	-11.5318
elf	-11.5318
▁pitt	-11.5318
▁gorka	-11.532
verse	-11.5321
keith	-11.5324
kea	-11.5326
wayne	-11.5327
slay	-11.5327
ose	-11.5329
map	-11.533
▁canceled	-11.5334
▁mate	-11.5338
uch	-11.5339
iti	-11.5339
▁wondering	-11.5339
zzy	-11.534
▁somewhere	-11.5341
▁detail	-11.5343
▁pedophile	-11.5343
ncy	-11.5344
1776	-11.5344
▁newly	-11.5354
ove	-11.5354
navy	-11.5356
erick	-11.5361
▁document	-11.5361
▁trudeau	-11.5364
joey	-11.5365
lag	-11.5367
alarm	-11.537
dah	-11.5372
mum	-11.5372
stein	-11.5373
obs	-11.5375
▁sharp	-11.5379
▁trigger	-11.538
hello	-11.5382
▁recently	-11.5382
▁bone	-11.5382
▁medicine	-11.5385
▁hunting	-11.5386
held	-11.5386
▁pole	-11.5386
▁dna	-11.5389
▁cheap	-11.5391
hank	-11.5391
joyce	-11.5396
kos	-11.5397
▁attitude	-11.5398
▁tyler	-11.5398
phan	-11.5399
bran	-11.54
▁advocate	-11.5402
nna	-11.5402
▁35	-11.5402
▁seats	-11.5405
ksn	-11.5406
▁surrender	-11.5406
series	-11.5407
▁delta	-11.541
brittany	-11.5414
▁citizenship	-11.5414
▁consequences	-11.5415
▁scream	-11.5417
▁vegan	-11.5418
william	-11.542
▁pla	-11.542
asian	-11.5425
▁indonesia	-11.5431
dove	-11.5432
alia	-11.5437
▁launched	-11.5439
eur	-11.5441
respect	-11.5442
pow	-11.5443
nel	-11.5447
▁openly	-11.5447
usatoday	-11.5448
▁plain	-11.545
hoa	-11.5452
elena	-11.5456
asim	-11.5459
arra	-11.546
▁yahoo	-11.546
▁alliance	-11.546
ick	-11.5461
acosta	-11.5461
▁disorder	-11.5461
▁kidding	-11.5462
damascus	-11.5463
▁swat	-11.5465
▁shark	-11.5466
▁pulling	-11.5467
nai	-11.5469
rush	-11.5471
pain	-11.5475
abb	-11.5476
kellyannepolls	-11.5476
ark	-11.5478
lad	-11.5479
hah	-11.5479
lance	-11.5481
\|	-11.5481
hollywood	-11.5482
▁nope	-11.5486
▁asshole	-11.549
gir	-11.5491
в	-11.5492
▁verdict	-11.5492
neo	-11.5496
dvd	-11.5496
gaz	-11.5497
▁regarding	-11.5498
👍	-11.5499
▁clara	-11.5499
grand	-11.55
lgbt	-11.55
▁empire	-11.5502
▁killings	-11.5502
ura	-11.5503
▁sacrifice	-11.5503
▁oak	-11.5503
nigga	-11.5503
kmb	-11.5504
▁operations	-11.5504
nite	-11.5504
nix	-11.5505
ode	-11.5506
⭐	-11.5508
project	-11.5508
1046	-11.551
pete	-11.5512
sby	-11.5515
google	-11.5516
jewel	-11.5519
▁protester	-11.5519
hue	-11.5523
market	-11.5528
helen	-11.5529
unc	-11.5529
order	-11.5531
а	-11.5533
lly	-11.5533
lostin	-11.5534
▁secrets	-11.5536
styles	-11.5537
color	-11.5537
▁plastic	-11.5539
▁clerk	-11.554
dow	-11.5541
clare	-11.5541
bho	-11.5544
▁damaged	-11.5546
▁stewart	-11.5548
▁decisions	-11.5548
ngo	-11.5551
▁terry	-11.5555
▁headquarters	-11.5555
moviequotes	-11.5556
pad	-11.5556
▁dean	-11.5556
▁cole	-11.5556
rach	-11.5559
▁creepy	-11.5559
▁noticed	-11.5561
mini	-11.5562
▁eagles	-11.5565
▁apparent	-11.5566
bree	-11.5568
imm	-11.5568
▁chest	-11.5569
▁lightning	-11.5575
uma	-11.5576
dat	-11.5579
rrr	-11.5579
mob	-11.5581
ago	-11.5583
▁emerge	-11.5584
opp	-11.5586
europe	-11.5586
93065	-11.5587
iest	-11.5591
fic	-11.5592
fine	-11.5593
paine	-11.5593
▁careful	-11.5598
smile	-11.56
е	-11.5602
▁indictment	-11.5603
▁slammed	-11.5604
▁arson	-11.5605
▁agreed	-11.5606
bang	-11.5606
▁tribe	-11.5607
▁poster	-11.5608
wax	-11.5611
kuw	-11.5611
songs	-11.5617
hel	-11.562
amis	-11.5621
✊	-11.5621
▁pretending	-11.5625
eem	-11.5626
▁registration	-11.5628
ryn	-11.5631
pes	-11.5632
sanders	-11.5634
▁icon	-11.5635
gardencity	-11.5635
lem	-11.5636
▁tesla	-11.5636
fou	-11.5636
▁faster	-11.5636
▁error	-11.5637
mau	-11.5642
iro	-11.5646
etta	-11.5649
group	-11.565
▁broncos	-11.5652
▁audit	-11.5652
▁$500	-11.5654
2013	-11.5654
nig	-11.5654
▁nat	-11.566
▁palm	-11.5663
▁cloud	-11.5663
▁seized	-11.5665
yrs	-11.5668
pla	-11.5668
ride	-11.5669
▁saves	-11.5671
▁docs	-11.5671
▁"#	-11.5676
author	-11.568
becky	-11.568
▁cable	-11.568
nty	-11.5682
boston	-11.5683
▁fundraising	-11.5683
▁lottery	-11.5684
▁chances	-11.5685
single	-11.5685
mill	-11.5688
▁bath	-11.5688
billy	-11.569
▁spying	-11.569
▁forum	-11.569
americans	-11.5692
▁hunger	-11.57
sum	-11.57
50,000	-11.57
▁rangers	-11.5701
bir	-11.5702
▁discussing	-11.571
▁sites	-11.5711
▁awkward	-11.5713
▁weiner	-11.5714
▁returned	-11.5715
т	-11.5715
person	-11.5716
111	-11.5716
▁liz	-11.5717
▁cleaning	-11.5718
▁boring	-11.5718
arc	-11.5719
▁disturbing	-11.572
▁feminists	-11.572
▁sexy	-11.5722
aries	-11.5725
sometimes	-11.5728
upe	-11.573
▁sink	-11.5731
lead	-11.5731
▁aware	-11.5731
maketvshows	-11.5732
lily	-11.5732
▁accepted	-11.5733
▁magnitude	-11.5733
wind	-11.5737
cyc	-11.5739
6%	-11.574
▁banner	-11.574
hul	-11.5747
ump	-11.5748
▁advances	-11.5748
iko	-11.5748
▁analyst	-11.5748
▁deleted	-11.5751
▁remembering	-11.5751
▁billions	-11.5752
fle	-11.5752
▁hopeful	-11.5753
legend	-11.5754
abe	-11.5756
comey	-11.5756
▁shield	-11.5756
cran	-11.5756
▁hiv	-11.5762
▁battling	-11.5764
honey	-11.5765
▁buzz	-11.5765
▁tradition	-11.5766
▁marry	-11.5773
▁lessons	-11.5775
▁kong	-11.5777
karen	-11.5779
bey	-11.578
ote	-11.578
▁scalia	-11.578
datpiff	-11.5781
▁characters	-11.5783
stream	-11.5791
ello	-11.5794
ments	-11.5796
▁ranch	-11.5797
▁defensive	-11.5797
▁jumps	-11.5797
▁divided	-11.5802
▁pushed	-11.5807
assad	-11.5808
▁jessica	-11.5812
irl	-11.5812
inauguration	-11.5812
▁reserve	-11.5813
▁lisa	-11.5815
africa	-11.5815
▁bs	-11.5815
▁monuments	-11.5817
▁repair	-11.5818
trade	-11.5819
▁bags	-11.5819
mayor	-11.5819
▁survivors	-11.5822
▁guards	-11.5822
pbs	-11.5825
▁remembered	-11.5827
liam	-11.5828
formation	-11.5828
rdeyeplug	-11.5829
▁annoying	-11.583
▁lived	-11.5831
▁talked	-11.5832
oid	-11.5835
jol	-11.5836
sville	-11.5837
▁colors	-11.5838
▁glenn	-11.5839
marley	-11.584
▁memes	-11.5843
▁expectations	-11.5846
chester	-11.5849
blood	-11.5854
cass	-11.5854
▁steals	-11.5857
grant	-11.5858
▁abbott	-11.5859
gift	-11.586
cad	-11.586
▁discusses	-11.5861
waynedupreeshow	-11.5862
▁bruh	-11.5863
pizzagate	-11.5864
awa	-11.5864
rik	-11.5866
donna	-11.5867
▁sentences	-11.5867
▁absolute	-11.5868
gdp	-11.5868
▁drunken	-11.5873
vil	-11.5874
▁melt	-11.5875
pass	-11.5875
sage	-11.5877
▁intense	-11.5879
thehill	-11.588
adee	-11.5881
▁31	-11.5882
easter	-11.5882
artists	-11.5885
▁jazz	-11.5886
amazing	-11.5887
▁abortions	-11.589
brother	-11.5891
carol	-11.5892
rex	-11.5896
victoria	-11.5897
naz	-11.5898
erson	-11.5898
uuu	-11.5899
194	-11.5902
▁plug	-11.5904
brun	-11.5906
▁insider	-11.5908
paid	-11.5909
▁deer	-11.5911
▁airline	-11.5912
phe	-11.5913
▁desert	-11.5917
roz	-11.592
▁uphold	-11.5921
rau	-11.5922
▁legendary	-11.5926
jesse	-11.5926
keshatedder	-11.5928
spec	-11.5928
▁dragged	-11.5928
danny	-11.593
cute	-11.593
clu	-11.593
jur	-11.5931
9%	-11.5932
▁advantage	-11.5934
733	-11.5935
pew	-11.5937
▁require	-11.5938
ties	-11.594
▁visiting	-11.594
ppy	-11.594
▁inspiring	-11.5941
yoo	-11.5943
nal	-11.5945
▁ancient	-11.5945
▁bobby	-11.5946
▁pets	-11.5947
pil	-11.5948
▁dolphins	-11.5951
▁unique	-11.5953
rse	-11.5957
▁bump	-11.5958
▁manafort	-11.5961
rup	-11.5961
oooo	-11.5962
▁wi	-11.5963
▁reid	-11.5963
▁string	-11.5966
edge	-11.5969
▁salt	-11.597
oda	-11.597
▁pieces	-11.5971
chat	-11.5971
▁pol	-11.5971
allah	-11.5973
▁unbelievable	-11.5976
▁included	-11.5977
▁bangladesh	-11.5978
▁featuring	-11.5978
fridayfeeling	-11.5978
pav	-11.5978
gkxki	-11.5979
▁mars	-11.5981
chy	-11.5981
▁clue	-11.5987
▁warrior	-11.5987
▁ditch	-11.5988
wai	-11.5989
leahr	-11.5991
cake	-11.5992
gru	-11.5994
drop	-11.5994
wen	-11.5994
▁lifts	-11.5996
▁winds	-11.5997
thedemocrats	-11.6001
dab	-11.6002
urd	-11.6004
dear	-11.6005
▁😍	-11.6006
gabriel	-11.6009
amir	-11.601
anon	-11.6016
maddow	-11.6017
cie	-11.6017
▁adding	-11.6026
martinez	-11.6027
▁disavow	-11.6028
ahh	-11.603
lax	-11.6032
▁declare	-11.6033
lim	-11.6034
olu	-11.6034
shadow	-11.6035
naa	-11.6037
▁socks	-11.6039
donnell	-11.604
uhh	-11.6044
▁labels	-11.6045
▁disrespect	-11.6045
▁freddie	-11.6046
then	-11.6047
▁honoring	-11.6047
step	-11.6048
▁horrific	-11.6049
logan	-11.6053
tbt	-11.6055
egg	-11.6056
▁insanity	-11.6058
▁whites	-11.6059
▁polling	-11.6061
donaldjtrumpjr	-11.6061
▁chapter	-11.6061
▁dhs	-11.6062
▁fleeing	-11.6062
▁concept	-11.6064
▁charleston	-11.6064
rri	-11.6064
▁usual	-11.6067
raz	-11.6069
▁$9	-11.607
abortion	-11.6071
▁wishing	-11.6072
remix	-11.6075
▁extension	-11.6078
▁swedish	-11.6078
▁flowers	-11.6079
osphorusdisaster	-11.6081
fold	-11.6081
▁gallery	-11.6086
iyah	-11.6087
▁mic	-11.6089
▁playoffs	-11.6091
▁television	-11.6095
▁rude	-11.6095
▁unfortunately	-11.6096
▁otherwise	-11.6097
cca	-11.6101
▁shine	-11.6101
▁$8	-11.6106
success	-11.6109
▁goat	-11.611
▁til	-11.611
▁emma	-11.6111
▁contain	-11.6114
▁sexist	-11.6115
▁kushner	-11.6118
osh	-11.6118
▁tick	-11.612
▁accusations	-11.6125
▁brandon	-11.6125
cay	-11.6125
▁scenes	-11.6127
hap	-11.6127
snow	-11.6128
muslimban	-11.6129
▁anonymous	-11.6134
jec	-11.6138
hug	-11.614
▁endorse	-11.614
dus	-11.6144
urk	-11.6145
ody	-11.6145
▁beard	-11.6146
▁environmental	-11.6147
▁bailout	-11.6147
▁dramatic	-11.6149
ocybercensorship	-11.615
faa	-11.615
diane	-11.6151
▁regrets	-11.6151
▁predator	-11.6152
▁bread	-11.6153
roa	-11.6154
phi	-11.6155
▁rumors	-11.6156
terrorist	-11.6161
porter	-11.6162
pis	-11.6163
four	-11.6163
superbowl	-11.6163
rab	-11.6166
▁dani	-11.617
▁bucks	-11.6171
eth	-11.6172
fah	-11.6175
▁mansion	-11.6175
til	-11.6179
▁feud	-11.618
cue	-11.618
▁ear	-11.6183
joan	-11.6189
shelby	-11.6189
▁awake	-11.6194
unconstitutional	-11.6196
prepares	-11.6199
▁lawn	-11.6201
pug	-11.6202
▁survival	-11.6203
nne	-11.6204
▁items	-11.6206
▁resources	-11.6209
▁vaccine	-11.6209
lang	-11.6209
isi	-11.6212
▁struggling	-11.6213
dez	-11.6214
april	-11.6217
▁windows	-11.6218
▁writes	-11.6219
▁range	-11.622
howard	-11.6221
ellis	-11.6222
▁millennials	-11.6222
equi	-11.6225
▁bash	-11.6228
▁assembly	-11.623
▁plow	-11.6231
▁veto	-11.6233
aur	-11.6234
tracy	-11.6236
omo	-11.6237
▁entering	-11.6245
▁carjacking	-11.6247
tell	-11.6248
▁risks	-11.6251
▁volunteers	-11.6252
hab	-11.6255
while	-11.6257
aint	-11.6257
wise	-11.6258
▁gross	-11.6258
mow	-11.6261
bds	-11.6262
odo	-11.6262
▁opportunities	-11.6264
▁equipment	-11.6264
▁grade	-11.6266
▁rosie	-11.6268
hear	-11.627
ache	-11.6273
fay	-11.6274
▁poisoned	-11.6274
▁wishes	-11.6275
acy	-11.6275
▁viewers	-11.6279
▁drawn	-11.6281
▁grandmother	-11.6282
burr	-11.6282
▁granted	-11.6284
lash	-11.6296
▁kwilli	-11.6297
👊	-11.6298
▁crashed	-11.6302
meter	-11.6304
wait	-11.6304
▁pledges	-11.6306
▁sight	-11.6307
▁allah	-11.6307
▁donated	-11.6313
▁graduation	-11.6315
ase	-11.6317
▁updated	-11.6317
rita	-11.6319
▁tennis	-11.6323
▁weighs	-11.6323
charlotte	-11.6326
▁throughout	-11.6329
cau	-11.633
charl	-11.6333
constitution	-11.6333
quinn	-11.6334
▁portland	-11.6335
cai	-11.6338
▁checks	-11.634
▁franken	-11.6345
wad	-11.6347
emoji	-11.6349
egwegq	-11.635
howtoescapeadate	-11.635
major	-11.6352
▁lou	-11.6354
agg	-11.6358
case	-11.636
clay	-11.636
▁thai	-11.6361
camp	-11.6362
aul	-11.6362
juice	-11.6363
▁urgent	-11.6368
▁motor	-11.637
astro	-11.6371
▁retweets	-11.6371
▁relationships	-11.6373
rog	-11.6373
jose	-11.6373
▁powerball	-11.6374
▁publicly	-11.6374
▁aggressive	-11.6377
▁physical	-11.6378
▁pearl	-11.638
casey	-11.6385
matter	-11.6387
▁des	-11.6387
puff	-11.6388
store	-11.6389
murder	-11.639
community	-11.6391
gau	-11.6392
ref	-11.6396
energy	-11.6397
bmw	-11.6399
fitz	-11.6401
intelgroup	-11.6402
▁spree	-11.6402
▁clueless	-11.6403
▁constantly	-11.6406
nad	-11.6409
spy	-11.641
craig	-11.641
▁protected	-11.641
philip	-11.6412
ivan	-11.6413
beer	-11.6415
▁noise	-11.6415
ware	-11.6417
▁zombie	-11.6418
▁liquor	-11.6419
▁repeatedly	-11.6419
▁unemployment	-11.642
next	-11.6421
thank	-11.6422
count	-11.6423
vik	-11.6423
round	-11.6425
collect	-11.6431
▁looms	-11.6431
devin	-11.6433
▁dutch	-11.6434
▁awaits	-11.6436
onewordoff	-11.6436
▁replaced	-11.6436
sense	-11.6437
▁journal	-11.6437
sai	-11.6438
▁eggs	-11.6438
sassy	-11.6438
▁sc	-11.644
itu	-11.6442
gif	-11.6445
▁opener	-11.6447
▁integrity	-11.6448
ogg	-11.6448
apo	-11.6449
nypost	-11.6449
une	-11.645
choice	-11.6451
hem	-11.6451
▁confident	-11.6453
▁qatar	-11.6454
mol	-11.6455
▁henry	-11.6455
dip	-11.6456
▁judicial	-11.6457
gla	-11.6459
pulse	-11.6459
▁toys	-11.6459
▁foul	-11.6461
oya	-11.6461
3,000	-11.6464
matters	-11.6467
shock	-11.6471
▁marlins	-11.6471
▁plunge	-11.6471
▁volunteer	-11.6471
corruptcongress	-11.6471
simon	-11.6473
mona	-11.6474
range	-11.6475
▁indeed	-11.6475
▁tanks	-11.6477
▁scheduled	-11.6477
bach	-11.6477
▁brad	-11.6477
ios	-11.6478
mod	-11.648
▁shoe	-11.6482
wap	-11.6483
cernovich	-11.6485
football	-11.6485
▁closure	-11.6487
👇	-11.6488
▁solidarity	-11.6488
hail	-11.6488
vor	-11.6488
▁gingrich	-11.6489
arte	-11.6489
▁mil	-11.6491
rue	-11.6495
▁root	-11.6495
oro	-11.6496
cep	-11.6499
knight	-11.6502
owp	-11.6504
▁evacuation	-11.6505
▁exact	-11.6506
▁breathe	-11.6507
sheriffclarke	-11.6507
emo	-11.6508
▁doc	-11.6509
aar	-11.651
▁required	-11.6513
friend	-11.6516
▁touching	-11.6519
trick	-11.6519
pas	-11.6519
▁nobel	-11.6521
lnyhbt	-11.6524
college	-11.6524
fag	-11.6525
neg	-11.6526
▁parks	-11.6531
▁daughters	-11.6534
brain	-11.6535
▁mega	-11.6535
▁mysterious	-11.6537
jaz	-11.6537
dela	-11.6541
▁convert	-11.6541
▁salary	-11.6541
▁envoy	-11.6541
▁grown	-11.6542
▁phase	-11.6542
sigh	-11.6543
mueller	-11.6545
liar	-11.6545
▁temple	-11.6546
kash	-11.6548
muh	-11.655
ffe	-11.6552
cpd	-11.6553
▁rocks	-11.6554
▁advisory	-11.6555
1969	-11.6556
ahmed	-11.6556
▁subscribe	-11.6557
▁knight	-11.6557
ante	-11.6558
legominifigures	-11.6559
•	-11.656
▁gorgeous	-11.6562
▁dirt	-11.6565
▁develop	-11.6571
jazz	-11.6575
💖	-11.6576
▁detention	-11.6577
starr	-11.6578
▁gut	-11.6579
▁asses	-11.6581
road	-11.6583
houston	-11.6583
ops	-11.6585
rak	-11.6586
▁rough	-11.6587
▁griffin	-11.6587
oup	-11.6588
ending	-11.659
canada	-11.659
rix	-11.6591
levi	-11.6594
▁tar	-11.6594
craft	-11.6599
▁pound	-11.6599
britain	-11.6602
▁juvenile	-11.6602
tara	-11.6602
lig	-11.6603
cloud	-11.6603
▁regulations	-11.6604
▁define	-11.6605
streetart	-11.6606
▁teenager	-11.6607
▁gunmen	-11.6607
▁mile	-11.6609
▁springs	-11.6609
mariasharapova	-11.6612
▁definition	-11.6612
❄	-11.6612
👌	-11.6612
▁spokesman	-11.6612
▁landslide	-11.6612
acc	-11.6613
samuel	-11.6614
teamtrump	-11.6615
▁dust	-11.6615
▁wages	-11.6615
cab	-11.6616
cant	-11.6616
▁stamp	-11.6617
▁rig	-11.6617
▁correction	-11.6617
▁chart	-11.6618
amer	-11.6621
russ	-11.6624
gene	-11.6624
wie	-11.6624
▁exhibit	-11.6628
dea	-11.6629
altonsterling	-11.6629
slamistheproblem	-11.6629
▁kidnapped	-11.6629
meh	-11.6632
▁highly	-11.6634
crisis	-11.6639
rating	-11.6641
▁describes	-11.6643
▁dozen	-11.6645
▁ronald	-11.6646
jos	-11.6646
source	-11.6647
kru	-11.6648
flip	-11.6651
▁enters	-11.6652
▁fence	-11.6654
ppa	-11.6654
webb	-11.6657
▁inner	-11.6659
▁violations	-11.6661
joa	-11.6662
dri	-11.6662
ihq	-11.6663
▁interests	-11.6664
▁encounter	-11.6665
▁beloved	-11.6666
arch	-11.6667
pho	-11.6668
fog	-11.6668
linger	-11.6668
oke	-11.6671
77:	-11.6672
bour	-11.6672
▁thin	-11.6674
▁certainly	-11.6675
▁explodes	-11.6675
libtards	-11.6676
▁wapo	-11.6678
▁placed	-11.6679
bbq	-11.668
▁dealer	-11.6681
▁dinesh	-11.6683
▁arts	-11.6684
founder	-11.6685
▁replacement	-11.6687
ats	-11.6687
▁stan	-11.6695
doj	-11.67
▁tha	-11.6701
▁camps	-11.6702
spirit	-11.6702
gina	-11.6707
▁baldwin	-11.6708
gur	-11.6709
gabby	-11.671
143	-11.6711
▁suggest	-11.6712
lud	-11.6712
▁consumer	-11.6714
▁lmfao	-11.6714
living	-11.6715
▁strengthen	-11.6716
▁violated	-11.6717
chic	-11.6717
☆	-11.6718
gia	-11.6719
▁rookie	-11.6719
carl	-11.672
snowden	-11.6721
randy	-11.6722
▁childhood	-11.6722
▁bel	-11.6725
dawn	-11.6727
cae	-11.6728
ups	-11.673
▁aclu	-11.6733
▁demo	-11.6733
▁lemon	-11.6736
🎉	-11.6736
▁recruit	-11.6736
▁focused	-11.6737
▁races	-11.6737
▁punishment	-11.6737
wei	-11.6738
▁marines	-11.6743
cker	-11.6745
▁advocates	-11.6747
▁classes	-11.6751
beingpatriotic	-11.6754
albani	-11.6757
addiction	-11.6759
kind	-11.6759
abdul	-11.676
flotus	-11.6764
eez	-11.6768
shane	-11.6769
som	-11.6772
mondaystartswith	-11.6772
▁naacp	-11.678
wyn	-11.6781
ouch	-11.6784
psa	-11.6784
mck	-11.6785
dak	-11.6786
▁fools	-11.679
melissa	-11.679
lug	-11.679
▁lecture	-11.679
▁throat	-11.679
▁maine	-11.6793
ohh	-11.6794
serv	-11.6797
▁cage	-11.68
▁injustice	-11.6803
deirezzor	-11.6808
freddiegray	-11.6808
bod	-11.6808
▁dip	-11.6808
pick	-11.6809
gospel	-11.6811
manuel	-11.6811
▁spark	-11.6812
ruby	-11.6814
▁tactics	-11.6814
▁responded	-11.682
horn	-11.6821
м	-11.6826
▁immunity	-11.6826
ypg	-11.6826
mikebrown	-11.6828
pru	-11.6829
dmv	-11.6829
cil	-11.6835
lind	-11.6835
uae	-11.6836
▁pace	-11.6838
harper	-11.6838
makers	-11.6838
▁militia	-11.6838
arthur	-11.6839
callme	-11.6841
wer	-11.6842
blackmatters	-11.6842
▁ellison	-11.6845
swag	-11.6846
wsu	-11.6848
▁trees	-11.6851
▁compare	-11.6852
▁tee	-11.6852
buck	-11.6854
jax	-11.6856
▁reopens	-11.6856
hamilton	-11.6859
nwo	-11.6859
ngsthatdisturbme	-11.6862
▁therapy	-11.6864
▁➡	-11.6868
▁hong	-11.6869
pres	-11.6871
slick	-11.688
▁association	-11.688
▁ebola	-11.6881
nny	-11.6883
▁journalism	-11.6883
▁clothing	-11.6884
▁kendrick	-11.6887
▁chilling	-11.689
cats	-11.689
0%	-11.6891
drake	-11.6892
nag	-11.6894
▁fixed	-11.6894
ige	-11.6894
▁solo	-11.6895
garry	-11.6896
▁taco	-11.6897
▁outage	-11.6897
ison	-11.6898
▁asleep	-11.6898
siwonttellmydad	-11.6899
▁suspicion	-11.6899
▁sham	-11.6899
▁spider	-11.6902
▁restaurants	-11.6902
▁pump	-11.6904
▁drives	-11.6904
daisy	-11.6905
test	-11.6905
bli	-11.6907
thisis	-11.6911
▁enforce	-11.6916
▁ensure	-11.6917
esp	-11.6918
▁sport	-11.6919
beyonce	-11.692
igk	-11.692
exit	-11.6921
▁achieve	-11.6921
▁retail	-11.6927
abba	-11.6931
bog	-11.6933
christina	-11.6935
▁aka	-11.6935
▁warehouse	-11.6935
▁oppression	-11.6935
epi	-11.6938
emm	-11.6939
▁quotes	-11.694
▁tool	-11.694
▁murdering	-11.6942
rail	-11.6943
hov	-11.6943
▁tamir	-11.6944
oko	-11.6944
kom	-11.6951
▁karma	-11.6953
α	-11.6953
liberals	-11.6954
▁roots	-11.6957
▁insult	-11.6958
▁unlike	-11.696
▁recover	-11.696
celeb	-11.6961
▁2,	-11.6965
▁accurate	-11.6966
▁smooth	-11.6968
▁novel	-11.6969
amms	-11.6969
▁restrict	-11.6972
▁eliminate	-11.6972
philly	-11.6973
▁brotherhood	-11.6973
move	-11.6973
▁lame	-11.6976
rnr	-11.6977
cuz	-11.6983
iron	-11.6989
heather	-11.6989
senatemajldr	-11.699
▁donna	-11.699
▁07/2017	-11.699
kri	-11.6991
australian	-11.6991
▁withdraw	-11.6991
oni	-11.6993
▁privacy	-11.6993
▁legit	-11.6994
▁attempting	-11.6994
double	-11.6996
▁underground	-11.6996
osu	-11.6997
derek	-11.6997
dex	-11.7006
find	-11.7007
▁microsoft	-11.7008
mick	-11.7009
▁wears	-11.7012
▁stranger	-11.7015
▁pigs	-11.7015
▁checking	-11.7017
▁increases	-11.7017
vibes	-11.7018
international	-11.7019
▁potter	-11.7024
▁papers	-11.7024
▁virgin	-11.7025
▁pipe	-11.7027
💰	-11.7027
▁stomach	-11.7027
▁tropical	-11.7027
aunt	-11.7027
bac	-11.7028
▁closures	-11.7028
five	-11.7033
▁metal	-11.7037
▁performing	-11.7038
▁birds	-11.704
savage	-11.7041
zin	-11.7042
yeah	-11.7043
▁iron	-11.7043
gli	-11.7045
kyi	-11.7046
hid	-11.7046
fund	-11.7049
▁ingraham	-11.7055
through	-11.7056
active	-11.7058
▁loop	-11.7062
hea	-11.7062
etti	-11.7064
inner	-11.7068
parker	-11.7069
▁interviews	-11.7069
▁elephant	-11.7069
anita	-11.707
▁biased	-11.7071
mii	-11.7073
afi	-11.7074
▁abused	-11.7075
▁maddow	-11.7077
iee	-11.7078
▁carpet	-11.7079
▁puppet	-11.7081
chee	-11.7082
esha	-11.7082
▁epidemic	-11.7082
▁silicon	-11.7082
8%	-11.7083
▁newest	-11.7083
▁bounce	-11.7084
rov	-11.7084
allie	-11.7084
ition	-11.7091
arts	-11.7091
itation	-11.7094
kmy	-11.7098
▁prisoner	-11.7098
maketvsexy	-11.7101
cky	-11.7101
▁terminal	-11.7101
dio	-11.7103
▁emily	-11.7103
dncleak	-11.7104
▁drawing	-11.7105
kii	-11.7106
saint	-11.7107
gmo	-11.7108
tella	-11.711
▁awarded	-11.711
ovo	-11.7111
ook	-11.7113
ethan	-11.7118
▁hedge	-11.7118
▁amy	-11.7119
violence	-11.7119
imtoooldfor	-11.7119
▁doug	-11.7119
▁freeze	-11.7123
▁significant	-11.7123
swan	-11.7124
▁losses	-11.7126
joh	-11.7127
▁affairs	-11.7129
nav	-11.7132
vas	-11.7133
dey	-11.7134
myne	-11.7135
jul	-11.7136
sig	-11.7136
aza	-11.7136
▁takeover	-11.7137
zzi	-11.7138
sses	-11.7139
diamond	-11.7141
rim	-11.7141
▁watchdog	-11.7144
medic	-11.7144
golden	-11.7148
kool	-11.7149
bid	-11.715
▁grind	-11.7151
▁tri	-11.7151
▁extremely	-11.7152
▁christopher	-11.7155
imthankfulfor	-11.7157
urban	-11.7157
vation	-11.7157
▁bigotry	-11.7158
▁violate	-11.7158
hwy	-11.7161
prisonplanet	-11.7161
▁moron	-11.7162
anderson	-11.7162
elia	-11.7163
zah	-11.7167
▁schiff	-11.7176
▁removing	-11.7176
▁chamber	-11.7176
▁friendly	-11.7176
▁revive	-11.7177
ranger	-11.7179
marcus	-11.718
going	-11.7181
😭	-11.7181
banislam	-11.7181
culture	-11.7182
dina	-11.7187
iggy	-11.7188
marty	-11.7188
▁heritage	-11.7188
model	-11.7189
▁202	-11.7189
eyes	-11.7192
▁fri	-11.7194
ingrahamangle	-11.7195
▁understanding	-11.7196
awards	-11.7198
▁counting	-11.7199
etch	-11.7204
easy	-11.7204
▁hated	-11.7204
magazine	-11.7204
saw	-11.7205
▁triggers	-11.7206
▁denounce	-11.7212
senjohnmccain	-11.7213
pap	-11.7214
▁gowdy	-11.7216
nip	-11.7217
studio	-11.722
ultra	-11.722
▁engaged	-11.7221
▁45	-11.7222
hater	-11.7223
flame	-11.7225
freak	-11.7227
▁shoulder	-11.7228
▁temperatures	-11.7229
▁yup	-11.7229
💙	-11.7232
wag	-11.7232
warriors	-11.7232
occ	-11.7232
kae	-11.7233
anche	-11.7236
▁management	-11.7239
▁baghdad	-11.724
macy	-11.7241
legal	-11.7241
▁palin	-11.7241
mikey	-11.7247
▁raids	-11.7248
▁gangs	-11.7248
▁gotten	-11.7248
▁katie	-11.7249
eal	-11.7249
grl	-11.725
stimetopanicwhen	-11.725
▁probation	-11.7251
ivo	-11.7252
▁macron	-11.7252
2000	-11.726
dav	-11.7261
▁affected	-11.7261
▁whale	-11.7261
▁riding	-11.7267
ows	-11.7267
▁penis	-11.7267
whati	-11.7268
load	-11.7268
▁measures	-11.7268
church	-11.7269
tuckercarlson	-11.7269
▁guarantee	-11.7271
cec	-11.7271
▁deck	-11.7276
%	-11.7278
season	-11.7281
▁billboard	-11.7284
▁sauce	-11.7284
cud	-11.7285
omb	-11.7286
shade	-11.7286
▁personally	-11.7286
▁object	-11.7288
▁misconduct	-11.7288
▁★★★	-11.7288
▁mentions	-11.7289
▁bart	-11.729
hei	-11.729
***	-11.7297
sjw	-11.7297
▁feminism	-11.7298
yak	-11.7298
▁desk	-11.7299
really	-11.7299
sss	-11.73
▁muscle	-11.7302
criminal	-11.7302
graphic	-11.7306
4%	-11.7306
ukraine	-11.7307
▁jewelry	-11.7307
▁garage	-11.7308
▁brawl	-11.731
▁protestors	-11.731
vir	-11.7312
▁carbon	-11.7314
oun	-11.7316
▁prediction	-11.732
nypd	-11.7321
jimmy	-11.7322
▁grants	-11.7322
▁silly	-11.7322
▁scale	-11.7322
luc	-11.7324
▁complaints	-11.7325
otr	-11.7325
jaw	-11.7326
▁homeowner	-11.7328
jeffsessions	-11.733
▁carlson	-11.7331
dro	-11.7335
▁forgive	-11.7336
loy	-11.734
▁inspire	-11.7343
kidd	-11.7344
▁costume	-11.7344
legitimate	-11.7345
philandocastile	-11.7345
diy	-11.7346
▁rural	-11.7347
▁ham	-11.7348
▁startup	-11.7349
humanity	-11.7349
flig	-11.735
▁origin	-11.7351
syd	-11.7351
sure	-11.7352
boom	-11.7355
▁designer	-11.7357
666	-11.7357
▁rainbow	-11.7357
rol	-11.7358
2017\|	-11.736
▁fist	-11.7361
texan	-11.7362
▁pitcher	-11.7363
333	-11.7364
▁debesstrs	-11.7364
▁worries	-11.7364
▁developer	-11.7366
raa	-11.7366
devil	-11.7367
security	-11.7368
▁hospitals	-11.7368
▁̄	-11.7369
▁highlight	-11.737
aby	-11.7372
▁abandon	-11.7372
gap	-11.7372
hurt	-11.7375
▁luxury	-11.7375
▁$50	-11.7376
▁bloody	-11.738
▁quits	-11.7382
throw	-11.7383
carr	-11.7384
▁101	-11.7384
▁shades	-11.7385
▁appointment	-11.7385
▁smack	-11.7387
vib	-11.7387
▁irish	-11.7388
▁victoria	-11.739
▁suspend	-11.739
oti	-11.7391
sah	-11.7392
▁gays	-11.7395
quis	-11.7396
ars	-11.7397
▁minorities	-11.7403
▁province	-11.7403
▁corp	-11.7403
mouth	-11.7404
animal	-11.7405
▁gates	-11.7407
aker	-11.741
▁aside	-11.7413
▁massachusetts	-11.7413
teddy	-11.7413
▁jihadis	-11.7415
▁increased	-11.7416
▁collapses	-11.742
▁commits	-11.742
▁bite	-11.742
▁aug	-11.7421
▁compete	-11.7421
ididmybestbut	-11.7422
unitedstates	-11.7422
▁denial	-11.7422
▁legally	-11.7423
andrrr	-11.7423
▁shown	-11.7424
owned	-11.743
brianna	-11.7433
▁marvel	-11.7433
▁whoever	-11.7433
record	-11.7434
kry	-11.7437
▁meetings	-11.7437
▁attract	-11.7437
cain	-11.7438
than	-11.7438
▁partners	-11.7438
lala	-11.7439
title	-11.744
▁useless	-11.744
libertarian	-11.744
▁opposite	-11.7441
islamophobia	-11.7441
nutrition	-11.7441
▁bizarre	-11.7441
kari	-11.7446
▁😂😂	-11.7449
funk	-11.7451
quan	-11.7452
▁betsy	-11.7454
▁belong	-11.7455
▁angels	-11.7456
▁topic	-11.7461
swat	-11.7461
▁communications	-11.7462
▁buildings	-11.7463
lago	-11.7468
chn	-11.7469
andris	-11.7471
meet	-11.7471
▁tattoo	-11.7472
▁mentor	-11.7474
ges	-11.7474
honor	-11.7477
▁humor	-11.7477
▁folk	-11.7478
▁owe	-11.7478
▁rockets	-11.7478
▁politicalhedge	-11.748
▁archive	-11.748
▁thousand	-11.7481
▁achievement	-11.7481
▁egyptian	-11.7483
▁inspiration	-11.7484
doctor	-11.7484
▁hopefully	-11.7488
als	-11.7489
▁pos	-11.749
onia	-11.7492
chron	-11.7493
kaz	-11.7494
crystal	-11.7495
▁bri	-11.7496
▁reaching	-11.7497
gerald	-11.75
dae	-11.75
▁opponents	-11.7504
robin	-11.7504
▁signal	-11.7507
▁|	-11.7508
▁invade	-11.7508
▁import	-11.7509
▁educated	-11.7511
grande	-11.7513
▁humanitarian	-11.7513
ecu	-11.7513
▁clark	-11.7515
tai	-11.7516
para	-11.7516
▁rosa	-11.7518
killer	-11.7519
syn	-11.752
naw	-11.752
avon	-11.7521
ied	-11.7526
pkk	-11.7526
angela	-11.7526
amberli	-11.7528
yen	-11.7529
▁clowns	-11.753
▁ramp	-11.7532
believe	-11.7535
lani	-11.7537
nventedwhilehigh	-11.7537
▁moderate	-11.7538
edit	-11.7538
▁counties	-11.754
▁blessing	-11.7542
lio	-11.7542
shah	-11.7551
fac	-11.7551
▁belgium	-11.7552
▁musical	-11.7553
▁phx	-11.7553
league	-11.7554
▁rivals	-11.7556
▁hungary	-11.7557
awesome	-11.7557
listenlive	-11.7558
▁delivered	-11.7559
weird	-11.7559
▁montana	-11.756
▁painful	-11.7561
winter	-11.7564
horror	-11.7565
georgia	-11.7567
▁goodell	-11.7567
▁tools	-11.7568
▁turner	-11.7568
vox	-11.7571
▁craft	-11.7572
iza	-11.7573
▁holocaust	-11.7574
riv	-11.7576
▁hypocrites	-11.7579
ddy	-11.758
▁emerges	-11.758
🏼	-11.7581
final	-11.7583
▁nurse	-11.7583
cqgp	-11.7585
jor	-11.7586
ury	-11.7589
jem	-11.7589
▁refund	-11.7591
▁unlikely	-11.7592
imi	-11.7592
chase	-11.7593
▁bother	-11.7593
jcz	-11.7594
▁statements	-11.7595
▁hussein	-11.7596
▁circus	-11.7596
marcorubio	-11.7596
kol	-11.7596
guntrust	-11.7596
▁thailand	-11.7597
poc	-11.7597
▁monica	-11.7598
darren	-11.7599
▁violation	-11.7599
trumprussia	-11.76
drug	-11.76
rif	-11.7602
maya	-11.7605
gaming	-11.7606
iac	-11.7607
aleex	-11.7607
▁trey	-11.7612
fear	-11.7614
▁peak	-11.7614
usc	-11.7614
▁compared	-11.7615
▁liars	-11.7615
▁fidel	-11.7616
momma	-11.7617
owen	-11.7621
▁cali	-11.7622
▁mali	-11.7623
▁battles	-11.7624
madison	-11.7626
▁complaint	-11.7627
ican	-11.7628
▁pocket	-11.7628
brew	-11.7628
▁swim	-11.763
▁contractor	-11.7633
▁prom	-11.7633
▁cemetery	-11.7635
evo	-11.7635
rro	-11.7636
▁wallet	-11.7637
▁dim	-11.7637
ille	-11.7638
▁geek	-11.764
ester	-11.7641
▁essential	-11.7648
▁trends	-11.7649
▁addiction	-11.765
▁cartel	-11.7651
▁damages	-11.7652
▁entry	-11.7653
observation	-11.7654
▁circuit	-11.7654
😎	-11.7654
▁nonsense	-11.7655
▁prank	-11.7656
▁endorsed	-11.7657
▁kit	-11.7657
dreamer	-11.766
associated	-11.7662
▁erupts	-11.7662
▁fisher	-11.7664
▁infrastructure	-11.7665
tiny	-11.7666
▁couch	-11.7668
▁harlem	-11.7669
▁bench	-11.767
▁stake	-11.7673
iamonfire	-11.7674
jak	-11.7676
▁☺	-11.7677
wis	-11.7678
kfc	-11.7678
thats	-11.7679
lindsay	-11.7683
joness	-11.7684
▁dreamers	-11.7686
▁yellow	-11.7686
mitchellvii	-11.7689
▁bye	-11.7689
▁pose	-11.7689
▁falcons	-11.7689
▁latino	-11.769
▁charm	-11.7691
1774	-11.7692
▁frozen	-11.7693
💜	-11.7694
▁amtrak	-11.7694
▁lauren	-11.7694
itter	-11.7694
buc	-11.7695
dim	-11.7697
▁impeached	-11.7699
▁bored	-11.7699
ndi	-11.7701
ush	-11.7701
said	-11.7702
ern	-11.7703
obey	-11.7704
wol	-11.7705
▁leonard	-11.7706
nte	-11.7706
hof	-11.7711
hali	-11.7712
▁registered	-11.7712
meangirlsrules	-11.7713
todd	-11.7714
▁outta	-11.7714
sexual	-11.7716
▁sells	-11.7717
▁jeremy	-11.7718
mond	-11.7721
lle	-11.7721
▁decline	-11.7725
▁previous	-11.7727
diary	-11.7728
wid	-11.7729
▁ram	-11.7731
☕	-11.7733
ilikepeoplewho	-11.7733
▁corporations	-11.7733
▁unhinged	-11.7733
♨	-11.7733
▁evacuations	-11.7734
ich	-11.7735
▁bryant	-11.7735
boys	-11.7735
▁10,000	-11.7737
evans	-11.7739
gig	-11.774
▁thrones	-11.7742
walsh	-11.7749
▁speeches	-11.7751
ready	-11.7752
marketing	-11.7753
bub	-11.7754
▁salad	-11.7755
▁dishonest	-11.7757
▁jackposobiec	-11.7757
▁screening	-11.7762
▁eagle	-11.7763
mika	-11.7765
standwith	-11.7766
slo	-11.7768
▁punish	-11.7769
▁celebs	-11.7771
▁payment	-11.7772
▁maintain	-11.7772
у	-11.7773
▁principal	-11.7773
fei	-11.7777
▁heartbreaking	-11.7779
smo	-11.778
▁scrap	-11.778
▁purple	-11.7781
mission	-11.7786
▁carried	-11.7786
leaf	-11.7787
▁2019	-11.7789
kla	-11.7792
warrior	-11.7793
▁manhunt	-11.7793
idi	-11.7793
xie	-11.7793
▁discount	-11.7793
trill	-11.7795
jug	-11.7797
cindy	-11.7799
haj	-11.7801
▁rein	-11.7802
▁fries	-11.7803
jeffrey	-11.7803
diaz	-11.7803
papi	-11.7811
gomez	-11.7812
duck	-11.7813
loa	-11.7814
poly	-11.7815
gma	-11.7818
arizona	-11.782
producer	-11.782
weather	-11.782
fad	-11.7822
▁foods	-11.7823
▁guam	-11.7825
▁snake	-11.7826
tucker	-11.7826
▁lyrics	-11.7828
ruth	-11.7828
rope	-11.7829
🏿	-11.7831
qanon	-11.7832
yearoldme	-11.7833
▁impose	-11.7833
▁familiar	-11.7833
▁fascist	-11.7834
omy	-11.7834
cun	-11.7835
▁masters	-11.7837
▁convince	-11.7837
sorry	-11.7838
▁dedicated	-11.7839
heep	-11.7843
cta	-11.7843
fraud	-11.7843
hud	-11.7846
▁churches	-11.7847
89'	-11.785
▁graduate	-11.7853
▁plz	-11.7856
rename	-11.786
reach	-11.786
▁boko	-11.7861
vos	-11.7861
▁buried	-11.7861
▁dineshdsouza	-11.7861
goo	-11.7861
▁opinions	-11.7865
▁stats	-11.7871
▁soundcloud	-11.7873
ube	-11.7873
▁internal	-11.7873
▁accepting	-11.7875
lux	-11.7878
senator	-11.7884
noble	-11.7884
boe	-11.7886
▁rino	-11.7886
▁brutally	-11.7886
njh	-11.7887
protect	-11.7887
everyone	-11.7888
secure	-11.789
uan	-11.7891
prolife	-11.7891
▁acquire	-11.7893
banks	-11.7893
▁section	-11.7894
quest	-11.7895
▁rudy	-11.7898
▁stanley	-11.79
169	-11.79
yea	-11.79
leave	-11.7902
wire	-11.7904
dylan	-11.7905
dry	-11.7906
▁payments	-11.7907
▁mercy	-11.7908
▁dive	-11.7908
▁palestinians	-11.7908
rant	-11.7913
campaignslogans	-11.7913
▁delegates	-11.7917
▁socialists	-11.7922
▁yelling	-11.7923
▁pakistani	-11.7924
door	-11.7924
motivation	-11.7927
gamer	-11.7927
▁explore	-11.7927
▁premier	-11.7932
eze	-11.7934
▁spreads	-11.7934
ude	-11.7936
public	-11.7938
▁decent	-11.7938
fie	-11.7941
eph	-11.7942
▁engine	-11.7944
chr	-11.7946
▁brennan	-11.7947
▁drill	-11.7947
blackpower	-11.7948
400	-11.7949
saudi	-11.795
betty	-11.7953
▁barely	-11.7957
▁sis	-11.7958
host	-11.7959
steel	-11.7959
cir	-11.7961
▁pup	-11.7965
▁figures	-11.7966
pool	-11.7966
biker	-11.7967
scotus	-11.7968
▁pour	-11.7971
vets	-11.7971
dash	-11.7971
travelerproblems	-11.7973
▁concealed	-11.7973
▁shameful	-11.7974
alec	-11.7974
▁lockdown	-11.7975
knp	-11.7975
operative	-11.7977
▁select	-11.7981
▁glory	-11.7983
zor	-11.7984
▁describe	-11.7985
▁dana	-11.7986
igo	-11.7987
wha	-11.799
▁wire	-11.7991
hoy	-11.7992
path	-11.7993
spear	-11.7993
▁ukrainian	-11.7994
tamirrice	-11.7994
▁peanut	-11.7994
▁earnings	-11.7994
shar	-11.7995
revolt	-11.7995
kass	-11.7995
▁condemned	-11.7997
▁graphic	-11.7997
▁boxing	-11.7997
souza	-11.7999
kou	-11.8
▁lowest	-11.8
▁laid	-11.8002
print	-11.8003
rino	-11.8005
ador	-11.8006
ough	-11.8007
▁leakers	-11.8007
▁however	-11.8011
▁poised	-11.8014
wak	-11.8015
▁unveil	-11.8015
afc	-11.8016
▁undermine	-11.8017
▁wound	-11.8018
▁factor	-11.802
sion	-11.8021
void	-11.8021
▁>>	-11.8021
iaa	-11.8023
mess	-11.8025
jackie	-11.8025
heat	-11.8026
▁prospect	-11.8027
▁recruiting	-11.8028
▁beans	-11.8028
cuba	-11.8028
kylie	-11.8029
cyn	-11.803
denise	-11.8032
▁poison	-11.8033
▁deficit	-11.8034
snowflake	-11.8036
altleft	-11.8036
▁zuckerberg	-11.8036
whatiwould	-11.8036
tang	-11.8039
could	-11.804
cause	-11.8042
▁✌	-11.8048
2014	-11.8048
quit	-11.8048
buzz	-11.805
▁lev	-11.805
▁juice	-11.8052
onthe	-11.8053
▁cites	-11.8054
▁chipotle	-11.8055
▁parole	-11.8055
vault	-11.8058
jeb	-11.8062
laz	-11.8062
brit	-11.8065
rbi	-11.8066
▁expects	-11.8066
nsc	-11.8068
rack	-11.8068
anton	-11.807
1988	-11.8072
sandra	-11.8072
vey	-11.8074
makedclisten	-11.8075
occupy	-11.8075
northkorea	-11.8076
▁possession	-11.8076
▁columbus	-11.8077
pls	-11.8078
▁grey	-11.8079
sugar	-11.808
▁fuckin	-11.808
▁motion	-11.808
clever	-11.8081
skull	-11.8081
irs	-11.8082
▁dragon	-11.8082
millennials	-11.8085
▁sandra	-11.8087
▁firms	-11.8087
kick	-11.8089
▁leaker	-11.809
fuvg	-11.8091
▁sting	-11.8091
▁ongoing	-11.8092
vegas	-11.8092
brig	-11.8093
121	-11.8095
▁motorcyclist	-11.8096
level	-11.8101
▁1/2	-11.8102
contest	-11.8102
jerry	-11.8103
▁runner	-11.8103
▁monkey	-11.8103
▁demon	-11.8108
▁jerk	-11.8109
aire	-11.811
▁peep	-11.811
▁opponent	-11.8111
▁oval	-11.8112
▁oks	-11.8115
▁column	-11.8116
▁comparison	-11.8116
▁ceasefire	-11.8117
▁regardless	-11.8117
▁welcomes	-11.8117
▁classroom	-11.8118
defend	-11.8119
▁embarrassing	-11.8122
jig	-11.8124
▁gm	-11.8127
fai	-11.8127
rogers	-11.8128
ija	-11.8128
▁wade	-11.8129
▁jfk	-11.813
▁unexpected	-11.8131
epa	-11.8132
children	-11.8133
▁elites	-11.8135
▁cotton	-11.8136
▁distance	-11.8137
neverforget	-11.8137
▁encourage	-11.8137
dei	-11.814
▁bombers	-11.8143
▁grew	-11.8143
▁stupidity	-11.8143
▁nicki	-11.8145
▁mentioned	-11.8146
medi	-11.8146
▁proper	-11.8148
blow	-11.8149
stoke	-11.815
feminist	-11.8153
cameron	-11.8155
▁kremlin	-11.8157
▁favourite	-11.8157
▁lauderdale	-11.8157
▁invented	-11.8157
▁gucci	-11.8159
stevie	-11.8159
kelsey	-11.816
laa	-11.8161
▁writers	-11.8161
▁istanbul	-11.8164
rene	-11.8167
▁jacket	-11.8167
▁char	-11.8168
▁secretly	-11.8168
yam	-11.8168
roh	-11.8172
niall	-11.8175
▁sheep	-11.8176
▁rem	-11.8177
both	-11.8179
pants	-11.8179
▁bribery	-11.8179
▁offender	-11.818
fishtv	-11.818
▁pile	-11.8184
▁saint	-11.8184
nana	-11.8185
dul	-11.8188
▁tire	-11.8188
ume	-11.8191
▁addresses	-11.8195
▁executed	-11.8196
▁tele	-11.8197
syoushouldntask	-11.8199
▁coulter	-11.8199
▁pleasure	-11.8199
▁simpson	-11.82
▁cancelled	-11.82
hillaryshealth	-11.82
▁promoting	-11.82
▁introduce	-11.8201
sym	-11.8201
lac	-11.8201
government	-11.8202
reid	-11.8203
nga	-11.8207
rena	-11.8208
thin	-11.8208
sharon	-11.8208
▁exists	-11.8208
mouse	-11.8209
ege	-11.8211
▁oldest	-11.8212
num	-11.8219
▁vatican	-11.822
▁crowds	-11.822
join	-11.822
standingrock	-11.822
▁backed	-11.822
▁douglas	-11.822
▁fascism	-11.8223
amazon	-11.8224
mimi	-11.8224
bic	-11.8224
senate	-11.8225
skinny	-11.8228
blogger	-11.8229
365	-11.823
frost	-11.823
fty	-11.823
gmail	-11.8231
kov	-11.8236
atta	-11.8237
yard	-11.8237
▁debates	-11.8238
lucky	-11.8239
wyearstartedwith	-11.824
▁receiving	-11.824
wrong	-11.824
lectric	-11.8241
▁nominated	-11.8241
tmz	-11.8243
▁enjoying	-11.8244
mobile	-11.8244
▁historical	-11.8245
ised	-11.8245
shia	-11.8246
doug	-11.8247
hau	-11.8249
zai	-11.825
french	-11.825
▁alright	-11.8251
hana	-11.8252
▁rappers	-11.8253
antipolice	-11.8254
niv	-11.8255
▁2000	-11.8255
▁outcome	-11.8257
▁manage	-11.8257
faw	-11.8258
▁reviews	-11.8259
▁freaking	-11.8261
▁certificate	-11.8261
axqand	-11.8261
▁scholarship	-11.8261
osi	-11.8262
▁leap	-11.8262
,500	-11.8262
▁consent	-11.8262
cyr	-11.8264
democrat	-11.8266
iie	-11.8268
▁spec	-11.8271
hughes	-11.8274
hang	-11.8275
zia	-11.8282
▁subpoena	-11.8282
mex	-11.8283
erica	-11.8284
▁boot	-11.8285
lom	-11.8285
lai	-11.8288
▁depends	-11.8289
kaepernick	-11.829
selena	-11.829
chef	-11.8291
sag	-11.8293
▁snowflakes	-11.8302
▁patience	-11.8303
⬇	-11.8303
▁swap	-11.8303
▁emissions	-11.8303
▁pursue	-11.8303
▁kicking	-11.8304
▁partnership	-11.8304
▁zones	-11.8304
▁brick	-11.8304
ooh	-11.8307
opinion	-11.8307
shame	-11.8308
igan	-11.8312
▁tall	-11.8312
pou	-11.8315
ibe	-11.8316
powered	-11.832
alma	-11.8322
▁undocumented	-11.8324
kip	-11.8324
birtherism	-11.8326
father	-11.8327
aug	-11.8327
theworld	-11.8328
nen	-11.8332
cres	-11.8334
▁relax	-11.8335
tens	-11.8336
parent	-11.8341
walking	-11.8342
▁overcome	-11.8342
amovieruinamovie	-11.8345
▁scalise	-11.8345
▁automatically	-11.8345
eagle	-11.8345
▁priority	-11.8346
▁planes	-11.8347
▁anxiety	-11.8351
▁models	-11.8351
dogs	-11.8354
▁rams	-11.8355
surf	-11.8356
brutalityday	-11.8357
▁kneeling	-11.8358
▁erase	-11.8359
bok	-11.836
▁donuts	-11.836
defense	-11.8361
thought	-11.8361
date	-11.8364
▁grocery	-11.8365
drmartyfox	-11.8366
wordnewyear	-11.8366
▁alozrast	-11.8366
▁overhaul	-11.8366
▁kathy	-11.8366
▁fiery	-11.8367
▁ugh	-11.8367
grind	-11.8368
piece	-11.8369
rra	-11.8369
avo	-11.8372
mich	-11.8375
wasteam	-11.8377
running	-11.8378
seo	-11.8381
▁cycle	-11.8382
asterin	-11.8382
▁handed	-11.8382
▁damascus	-11.8383
itsso	-11.8384
niko	-11.8384
▁texts	-11.8385
jennie	-11.8392
▁maker	-11.8393
▁appointed	-11.8396
▁overtime	-11.8398
baz	-11.8401
▁durham	-11.8406
dcexaminer	-11.8408
▁inquiry	-11.8408
slate	-11.8408
▁representative	-11.8408
▁filter	-11.8409
▁alter	-11.8409
hnx	-11.8409
▁baker	-11.8409
eer	-11.8409
▁remix	-11.8409
▁hottest	-11.8409
illionin	-11.8411
▁2011	-11.8411
▁polish	-11.8411
monica	-11.8412
▁sack	-11.8414
▁earned	-11.8414
eating	-11.842
writing	-11.8422
▁drones	-11.8423
▁loyal	-11.8423
saturday	-11.8423
▁reign	-11.8424
ubi	-11.8425
idk	-11.8425
cip	-11.8428
ftp	-11.8429
ald	-11.8429
dotcom	-11.8429
▁prosecution	-11.8429
▁looters	-11.8429
▁studies	-11.843
▁manziel	-11.843
notmypresident	-11.843
▁shitty	-11.843
miranda	-11.8432
▁headlines	-11.8432
vio	-11.8433
dragon	-11.8435
kurt	-11.8435
beg	-11.8437
cbc	-11.8442
▁crashing	-11.8443
▁nike	-11.8444
uli	-11.8445
▁prosecute	-11.8446
▁trauma	-11.8447
▁organ	-11.8448
reasoniamnot	-11.8448
▁devices	-11.8449
flu	-11.8449
dew	-11.8449
▁arguments	-11.8451
▁politically	-11.8451
wine	-11.8451
shr	-11.8454
▁grill	-11.8454
▁gene	-11.8455
haley	-11.8458
rnb	-11.8459
▁bon	-11.846
monster	-11.8462
▁sheet	-11.8463
orn	-11.8464
worst	-11.8464
pride	-11.8465
sleep	-11.8466
palmer	-11.8467
crew	-11.8468
▁mocks	-11.8469
▁outrageous	-11.847
▁pill	-11.8472
youarearacistif	-11.8472
cigarette	-11.8474
▁grammy	-11.8475
mitch	-11.8476
jou	-11.8477
utz	-11.8478
aku	-11.8478
▁humble	-11.8479
uva	-11.848
mber	-11.8481
▁glorious	-11.8482
psy	-11.8484
▁began	-11.8485
foo	-11.8485
▁bombings	-11.8486
neal	-11.8486
bgn	-11.8486
mcm	-11.8488
caroline	-11.8488
▁idol	-11.8488
koo	-11.8492
flash	-11.8493
▁transcript	-11.8493
hoop	-11.8495
ariel	-11.8495
dress	-11.8495
used	-11.8497
clear	-11.8497
▁smash	-11.8497
▁disappointed	-11.8497
yee	-11.8498
sammy	-11.8499
treat	-11.8501
eek	-11.8504
silver	-11.8504
sierra	-11.8504
hound	-11.8505
▁hmmm	-11.8509
naj	-11.851
▁abe	-11.8512
dug	-11.8512
rafa	-11.8513
sqjlvubhbi	-11.8515
▁laptop	-11.8517
▁*1	-11.8519
▁alexander	-11.8519
levin	-11.8522
▁hernandez	-11.8523
bradley	-11.8524
▁fingers	-11.8524
ivankatrump	-11.8524
▁farewell	-11.8527
voy	-11.8528
luck	-11.8533
gard	-11.8535
reynolds	-11.8536
cynthia	-11.8536
bennett	-11.8537
nti	-11.8537
▁slim	-11.8538
yum	-11.8538
isaac	-11.8538
▁dismisses	-11.8539
rates	-11.8541
darling	-11.8541
▁stab	-11.8544
▁questioning	-11.8544
▁refer	-11.8545
▁cliff	-11.8547
jia	-11.8548
corruption	-11.8549
aamy	-11.8551
▁gaga	-11.8555
fig	-11.8555
sanfrancisco	-11.8558
▁ideology	-11.8558
▁migration	-11.8558
▁rogue	-11.856
alllivesmatter	-11.8561
▁hug	-11.8562
▁heal	-11.8563
▁vandalized	-11.8563
atu	-11.857
▁haley	-11.857
huffpost	-11.857
▁visual	-11.8571
kop	-11.8572
twt	-11.8577
ü	-11.8579
▁proceed	-11.8579
▁intern	-11.8581
peg	-11.8581
earl	-11.8581
▁bubble	-11.8584
wallace	-11.8584
allison	-11.8586
▁tracking	-11.8586
▁networks	-11.8587
jessie	-11.8588
maddie	-11.859
eon	-11.859
▁champions	-11.8595
sresolution	-11.8596
feel	-11.8596
900	-11.86
sensitive	-11.8601
▁smartphone	-11.8601
porn	-11.8602
yay	-11.8606
▁robinson	-11.8609
fnc	-11.8609
myp	-11.861
egr	-11.8611
lone	-11.8612
nde	-11.8613
bap	-11.8614
▁bonds	-11.8616
pep	-11.8619
buff	-11.862
▁buck	-11.862
😘	-11.8622
▁interstate	-11.8623
virginia	-11.8624
jill	-11.8626
ulation	-11.8626
▁opposed	-11.8626
▁complaining	-11.8628
moh	-11.863
▁deploy	-11.8631
ltz	-11.8632
▁toronto	-11.8633
▁motive	-11.8633
▁controlled	-11.8633
▁upgrade	-11.8634
▁malaysia	-11.8635
ezz	-11.8636
▁confront	-11.8638
▁responding	-11.8638
kis	-11.8638
▁colombia	-11.8639
ddd	-11.864
▁texans	-11.8644
▁dobbs	-11.8646
arr	-11.8647
▁diss	-11.8657
solo	-11.8658
jorge	-11.8658
pry	-11.8659
▁forcing	-11.866
mira	-11.866
udd	-11.8664
▁pharma	-11.8664
▁prior	-11.8666
billclinton	-11.8667
samantha	-11.8667
05/2017	-11.8669
something	-11.867
▁nunes	-11.867
ncs	-11.8671
zig	-11.8671
vix	-11.8672
▁corps	-11.8672
▁galaxy	-11.8672
▁wrestling	-11.8674
wac	-11.8677
▁dash	-11.8678
▁creep	-11.8679
agu	-11.8679
eni	-11.868
▁selection	-11.8685
etz	-11.8687
fallon	-11.8687
ifiwereacop	-11.8687
whiteoutsidethat	-11.8687
kimberly	-11.8687
laugh	-11.8688
▁climb	-11.8688
rance	-11.869
▁giveaway	-11.869
mean	-11.8691
▁lebanon	-11.8691
▁cinema	-11.8692
▁rioters	-11.8693
bass	-11.8693
▁edward	-11.8694
▁airstrike	-11.8695
ptsd	-11.8696
hed	-11.8698
▁debunked	-11.8699
rising	-11.87
▁researchers	-11.8703
▁sandwich	-11.8705
chew	-11.8705
▁wore	-11.8706
nya	-11.8707
▁limbaugh	-11.8709
▁stir	-11.871
▁sudan	-11.871
▁soda	-11.8714
student	-11.8715
oud	-11.8715
ccc	-11.8716
bong	-11.8717
cheryl	-11.8718
oop	-11.8718
digital	-11.8721
hire	-11.8722
desi	-11.8724
1979	-11.8725
ntz	-11.8726
roberts	-11.8726
allenwestrepub	-11.8726
drink	-11.8727
▁mayoral	-11.8727
bly	-11.8728
▁columbia	-11.8728
▁disappear	-11.8729
igh	-11.873
500	-11.8733
cpac	-11.8733
lick	-11.8734
bue	-11.8737
▁bloomberg	-11.8738
vehicle	-11.8738
mpl	-11.8738
▁qaeda	-11.8738
illo	-11.8739
▁reopen	-11.874
fea	-11.8741
▁tbh	-11.8741
latino	-11.8743
works	-11.8744
ication	-11.8745
▁nopd	-11.8745
reed	-11.8753
▁vladimir	-11.8753
▁portrait	-11.8753
mov	-11.8753
anisis	-11.8755
thankyou	-11.8756
600	-11.8757
▁burglar	-11.8758
shooters	-11.8762
uto	-11.8763
them	-11.8763
ets	-11.8763
facebook	-11.8764
uti	-11.8764
deni	-11.8766
▁firearms	-11.8767
pwc	-11.8767
control	-11.8767
agi	-11.8769
▁blew	-11.8769
▁requires	-11.8771
elm	-11.8772
▁defund	-11.8773
▁relatives	-11.8774
▁experiment	-11.8775
▁sentencing	-11.8775
▁truce	-11.8775
▁jackpot	-11.8776
mental	-11.8776
▁bros	-11.8777
▁islands	-11.878
lok	-11.8781
caa	-11.8781
🔥🔥	-11.8782
salon	-11.8782
▁explode	-11.8783
mmi	-11.8785
▁pete	-11.8785
▁kissing	-11.8788
▁appreciated	-11.879
mexico	-11.879
▁rousseff	-11.8797
isaiah	-11.8799
▁steam	-11.88
▁pickup	-11.8804
▁nationalist	-11.8808
800	-11.8808
ril	-11.8811
nci	-11.8811
▁dominate	-11.8812
▁mandate	-11.8812
▁constant	-11.8813
newmusic	-11.8814
imho	-11.8815
zza	-11.8815
▁deeply	-11.8816
fli	-11.8819
itsmuchbetter	-11.8819
▁hogan	-11.882
randpaul	-11.882
▁arsenal	-11.882
dfw	-11.8821
beast	-11.8824
faz	-11.8825
nto	-11.8825
vogue	-11.8826
hyd	-11.8827
prof	-11.8829
▁quietly	-11.883
▁wildfires	-11.8832
▁cooper	-11.8834
▁adventure	-11.8834
gha	-11.8835
sharia	-11.8835
▁fines	-11.8837
disney	-11.8838
▁bake	-11.8838
shake	-11.8839
marissa	-11.8839
▁preserve	-11.8841
▁software	-11.8841
▁beijing	-11.8841
vig	-11.8841
yeo	-11.8842
neh	-11.8842
▁feared	-11.8843
neu	-11.8843
▁darkness	-11.8844
▁"@	-11.8844
😍	-11.8846
▁basement	-11.8846
aaaaa	-11.8847
▁chiefs	-11.8847
glow	-11.8848
blanc	-11.8849
ryl	-11.8849
asy	-11.885
katy	-11.885
▁prod	-11.8852
▁stem	-11.8853
lif	-11.8855
▁hockey	-11.8855
▁hacks	-11.8857
▁exam	-11.8862
convict	-11.8862
maxinewaters	-11.8863
flint	-11.8863
▁discipline	-11.8865
hsb	-11.8865
anc	-11.8865
bhm	-11.8866
politico	-11.8867
1980	-11.887
rii	-11.8873
▁debunk	-11.8874
▁photographer	-11.8875
▁nail	-11.8876
dumb	-11.8876
▁showdown	-11.8877
▁packers	-11.8878
oby	-11.8878
▁2017:	-11.8879
▁nikki	-11.888
stage	-11.8883
note	-11.8883
▁guaranteed	-11.8883
bieber	-11.8884
blackexcellence	-11.8885
notorious	-11.8885
sensanders	-11.8886
▁grass	-11.8888
aaf	-11.8892
▁marching	-11.8893
▁imma	-11.8895
bern	-11.8895
▁stopping	-11.8897
nato	-11.8897
oba	-11.8897
▁chop	-11.8898
mei	-11.8903
ete	-11.8904
▁blunt	-11.8905
▁roberts	-11.8907
▁scrutiny	-11.8907
▁trayvon	-11.8907
tlcprincess	-11.8907
nap	-11.8908
angry	-11.891
everything	-11.891
moonlight	-11.8912
gis	-11.8913
angii	-11.8914
paper	-11.8914
▁gunshot	-11.8916
▁worship	-11.8916
▁recipe	-11.8916
▁fewer	-11.8919
hod	-11.892
▁collect	-11.8921
▁4,	-11.8922
▁poc	-11.8923
slut	-11.8928
inout	-11.893
😩	-11.893
cade	-11.8931
▁tail	-11.8933
kab	-11.8934
awkward	-11.8934
joke	-11.8934
▁conf	-11.8934
nuclear	-11.8935
panda	-11.8937
iana	-11.894
drive	-11.894
mina	-11.8941
▁abs	-11.8941
murphy	-11.8945
stud	-11.8945
▁erupt	-11.8946
▁trolling	-11.8947
nasa	-11.8949
bigg	-11.8951
▁drastic	-11.8952
▁broadway	-11.8953
azuus	-11.8955
▁den	-11.8956
punk	-11.896
45:	-11.8961
alley	-11.8962
▁evangelical	-11.8963
▁plants	-11.8965
fio	-11.8968
wakeup	-11.8974
bjufrq	-11.8974
semitic	-11.8975
▁ashamed	-11.8975
▁steak	-11.8975
▁woes	-11.8975
▁showers	-11.8977
▁organized	-11.8978
kennedy	-11.8982
▁discovery	-11.8984
▁hatch	-11.8986
feed	-11.8987
madi	-11.899
▁batman	-11.8992
▁mrs	-11.8993
kle	-11.8993
ologist	-11.8994
▁specific	-11.8994
asong	-11.8996
lastminutegift	-11.8997
newsonenow	-11.8997
▁pierson	-11.8997
▁pamela	-11.8997
runner	-11.8997
▁micro	-11.8999
curtis	-11.9
bobby	-11.9
▁askem	-11.9001
sophia	-11.9004
▁flies	-11.9004
dos	-11.9006
ntr	-11.9006
uki	-11.9008
▁roman	-11.9014
▁marcus	-11.9017
twittermakesme	-11.9019
sundaymorning	-11.9019
elliott	-11.902
trey	-11.902
fau	-11.9023
male	-11.9023
zon	-11.9025
▁function	-11.903
crack	-11.903
oso	-11.903
close	-11.9032
▁useful	-11.9033
▁buys	-11.9033
💯	-11.9037
▁urged	-11.9041
profit	-11.9041
aber	-11.9042
🎶	-11.9042
redneckamovie	-11.9042
▁proved	-11.9042
▁mourn	-11.9043
eid	-11.9043
▁landmark	-11.9045
▁999	-11.9045
▁questioned	-11.9046
axe	-11.905
н	-11.906
lur	-11.9061
mlb	-11.9061
▁dylan	-11.9063
isntallowed	-11.9064
infidel	-11.9064
base	-11.9065
▁expands	-11.9065
morris	-11.9066
▁wasted	-11.9066
▁🥺	-11.9066
▁sharpton	-11.9066
▁kurds	-11.9066
ake	-11.9067
▁cruel	-11.9068
yaa	-11.9068
three	-11.9069
rome	-11.9069
ogy	-11.907
traitor	-11.907
▁20%	-11.9071
▁nominate	-11.9074
▁crow	-11.9074
yik	-11.9074
▁psycho	-11.9074
▁cave	-11.9074
remember	-11.9075
hob	-11.9075
taking	-11.9075
jeremy	-11.9081
lloyd	-11.9084
harrytruman	-11.9087
▁choosing	-11.9087
▁creature	-11.9087
▁cringe	-11.9087
andthe	-11.9087
sab	-11.9089
▁newborn	-11.9089
▁mins	-11.909
▁beck	-11.909
aji	-11.9093
cate	-11.9093
lbs	-11.9095
▁jumping	-11.9101
102	-11.9102
utu	-11.9102
terra	-11.9103
holt	-11.9104
julian	-11.9107
profile	-11.9107
angelo	-11.9107
vale	-11.9109
▁implement	-11.9109
ashle	-11.911
▁carrie	-11.911
funded	-11.9112
▁suburban	-11.9112
sap	-11.9118
islamic	-11.9118
▁libyan	-11.912
lush	-11.9125
kho	-11.9126
hya	-11.9127
mono	-11.9131
rop	-11.9132
vom	-11.9133
verified	-11.9134
monroe	-11.9135
▁purge	-11.9136
kad	-11.9136
margaret	-11.9138
bha	-11.9141
review	-11.9142
bliss	-11.9144
▁alan	-11.9146
▁ave	-11.9147
haf	-11.9152
ouldgetamedalfor	-11.9155
rho	-11.9155
rky	-11.9156
▁chosen	-11.9156
anu	-11.9156
lup	-11.9157
▁brock	-11.9157
jennifer	-11.9157
boro	-11.9158
fellon	-11.9158
chanel	-11.916
▁miracle	-11.916
uci	-11.9163
▁quest	-11.9164
▁prisons	-11.9164
alexdr	-11.9166
tail	-11.9166
guil	-11.9166
▁conflicts	-11.9168
clint	-11.9169
▁justify	-11.917
worstpa	-11.9172
4,000	-11.9173
uba	-11.9177
▁collide	-11.9178
▁transplant	-11.9178
senwarren	-11.9179
▁dennis	-11.9179
urr	-11.918
sanchez	-11.918
▁waking	-11.9181
athletic	-11.9182
pdx	-11.9182
itunes	-11.9183
▁raw	-11.9184
▁strongest	-11.9185
ular	-11.9186
▁clever	-11.919
heal	-11.9191
abiss	-11.9191
▁colleges	-11.9192
meghan	-11.9194
christine	-11.9194
mighty	-11.9194
kok	-11.9194
▁insults	-11.9195
dpk	-11.9199
▁spare	-11.92
mydoomsdayplans	-11.9201
▁interference	-11.9201
▁reference	-11.9201
▁nixon	-11.9201
agh	-11.9202
▁christianity	-11.9205
blackmattersus	-11.9206
otd	-11.9206
sydney	-11.9207
ebooks	-11.9207
seattle	-11.9209
▁mud	-11.921
poetry	-11.9211
terri	-11.9215
days	-11.9215
▁pills	-11.9215
repost	-11.9216
▁prosecuted	-11.9217
adv	-11.9217
blc	-11.922
coffee	-11.9223
13:	-11.9223
^	-11.9224
blackpressday	-11.9224
▁pregnancy	-11.9224
▁snyder	-11.9224
▁libtard	-11.9225
▁sniper	-11.9226
aru	-11.9226
▁councilman	-11.9226
wtv	-11.9227
comics	-11.9227
▁rihanna	-11.9228
▁georgiadirtroad	-11.923
xxl	-11.9232
immer	-11.9233
logic	-11.9234
arri	-11.9236
▁rash	-11.9236
▁promoted	-11.9239
eleven	-11.9241
▁tale	-11.9243
🤔	-11.9244
baiting	-11.9244
holiday	-11.9245
▁organizer	-11.9245
carminezozzora	-11.9247
▁calendar	-11.9247
vulnerability	-11.9247
malik	-11.9247
rud	-11.9247
▁lifted	-11.9248
▁derail	-11.9248
nac	-11.9251
yuk	-11.9252
ltd	-11.9254
247	-11.9254
lev	-11.9256
▁racing	-11.9257
▁@___	-11.9258
killa	-11.9259
▁sandy	-11.926
trial	-11.9261
issa	-11.9263
▁doubles	-11.9264
zam	-11.9266
▁accusing	-11.927
▁teamtrumpaz	-11.927
▁argentina	-11.927
▁grip	-11.927
uhl	-11.9273
▁capitalism	-11.9274
▁shouting	-11.9274
nse	-11.9275
▁breakdown	-11.9275
spon	-11.9275
▁wealthy	-11.9276
thor	-11.9276
▁barrel	-11.9276
▁diver	-11.9277
▁wildlife	-11.9279
▁turnout	-11.9281
▁usfreedomarmy	-11.9283
ites	-11.9285
▁solutions	-11.9285
▁cooperation	-11.9286
▁3,	-11.9286
mala	-11.9289
gucci	-11.9292
deborah	-11.9293
▁goldman	-11.9293
▁transportation	-11.9293
_77	-11.9294
urf	-11.9297
christ	-11.9297
▁crystal	-11.9297
▁slaughter	-11.9298
▁taxi	-11.9299
ctu	-11.93
yana	-11.9302
▁detective	-11.9303
hib	-11.9304
▁simmons	-11.9304
ebay	-11.9305
rhe	-11.9306
foxbusiness	-11.9307
neverin	-11.9307
▁24/7	-11.931
▁punched	-11.9311
uta	-11.9311
billion	-11.9313
geoy	-11.9313
lusion	-11.9314
nelson	-11.9315
▁calif	-11.9316
gunsforcriminals	-11.9316
▁context	-11.9316
▁robbing	-11.9317
▁50%	-11.9321
▁hurting	-11.9322
aprill	-11.9322
▁mets	-11.9325
▁killers	-11.9327
endo	-11.9329
challenge	-11.9333
ime	-11.9333
azi	-11.9334
iga	-11.9336
faketaxfacts	-11.9339
▁bankruptcy	-11.934
▁liver	-11.934
aah	-11.9341
▁correctness	-11.9342
aal	-11.9343
▁ambush	-11.9343
bruce	-11.9344
▁$12	-11.9344
▁scout	-11.9345
1999	-11.9345
▁recommend	-11.9346
erie	-11.9348
▁verse	-11.9352
▁congo	-11.9353
hii	-11.9354
kni	-11.9354
▁irony	-11.9354
▁coaches	-11.9356
kane	-11.9356
▁bound	-11.9357
▁additional	-11.936
enna	-11.9361
ledge	-11.9362
ericbolling	-11.9362
tospotasocialist	-11.9362
uthornsrawk	-11.9362
wielding	-11.9362
▁pollution	-11.9362
veritas	-11.9363
\	-11.9364
lez	-11.9365
fuk	-11.9365
dollar	-11.9365
▁safer	-11.9367
▁universal	-11.9367
equality	-11.9369
tonight	-11.9372
toy	-11.9375
duke	-11.9376
ubb	-11.9377
▁recovered	-11.9377
gree	-11.9378
oom	-11.9378
▁homie	-11.9378
▁rex	-11.9379
umi	-11.9381
▁punching	-11.9381
mariowoods	-11.9384
loe	-11.9386
▁djokovic	-11.9386
▁zealand	-11.9386
lob	-11.9388
2001	-11.9388
boz	-11.9388
maine	-11.9394
▁grove	-11.9399
awn	-11.94
nev	-11.9401
yas	-11.9401
▁ears	-11.9405
blackgirlnerds	-11.9409
atnbco	-11.941
original	-11.9411
▁tolerate	-11.9412
▁tracker	-11.9412
eman	-11.9413
pizza	-11.9414
jag	-11.9416
fem	-11.9419
▁watson	-11.9421
▁uncovered	-11.9421
▁systems	-11.9421
▁centers	-11.9421
▁punished	-11.9423
▁patriotic	-11.9423
pdf	-11.9426
ggg	-11.9426
dread	-11.9426
nex	-11.9427
rrrr	-11.9429
▁loyalty	-11.9429
▁fee	-11.9429
scene	-11.943
terry	-11.9431
dontneeda	-11.9433
▁incidents	-11.9433
▁oversight	-11.9433
ched	-11.9434
hara	-11.9435
▁slowly	-11.9435
showbiz	-11.9435
building	-11.9436
▁drinks	-11.9438
▁founded	-11.944
amovie	-11.944
▁spice	-11.9444
▁predators	-11.9448
▁blatant	-11.945
▁convinced	-11.9451
▁bride	-11.9454
ees	-11.9454
▁superintendent	-11.9456
autumn	-11.9456
vac	-11.9456
▁mashup	-11.9457
▁roster	-11.9459
uzz	-11.9461
wizard	-11.9461
rella	-11.9463
elder	-11.9463
nvey	-11.9464
▁sample	-11.9466
hook	-11.9466
?!?	-11.9466
payne	-11.9467
kansas	-11.9468
ebo	-11.947
▁julie	-11.947
▁produced	-11.9471
frog	-11.9472
▁vile	-11.9473
ule	-11.9473
▁coward	-11.9475
▁longtime	-11.9476
fancy	-11.9477
ako	-11.9477
😳	-11.9479
costumebecause	-11.948
▁astronaut	-11.948
catherine	-11.948
zul	-11.948
instrument	-11.948
▁vintage	-11.948
▁resolve	-11.948
kendall	-11.948
seal	-11.9481
becca	-11.9481
▁confirmation	-11.9481
service	-11.9483
wofx	-11.9485
acapa	-11.9485
movies	-11.9486
gavin	-11.9488
✌	-11.9488
lying	-11.9488
amo	-11.9488
▁???	-11.9489
▁temporary	-11.949
rge	-11.9491
ith	-11.9493
alys	-11.9493
▁booming	-11.9495
oxy	-11.9495
▁woo	-11.9496
▁upper	-11.9498
aay	-11.9499
pirate	-11.95
erik	-11.9501
▁newton	-11.9501
glu	-11.9503
▁vulnerable	-11.9503
▁fiorina	-11.9503
christichat	-11.9503
jebbush	-11.9503
▁sworn	-11.9503
▁mod	-11.9504
▁katy	-11.9508
miz	-11.951
planet	-11.951
amelin	-11.9511
cancel	-11.9511
▁choke	-11.9513
▁caitlyn	-11.9513
▁shred	-11.9516
debbie	-11.9517
▁tested	-11.9517
▁meals	-11.9519
mmo	-11.9519
▁flex	-11.952
▁blown	-11.952
iki	-11.9521
▁@500	-11.9525
turner	-11.9525
livesmatter	-11.9526
yaz	-11.9526
becomespresident	-11.9527
sinfourwords	-11.9527
❌	-11.9527
rnc	-11.9527
valerie	-11.9527
uncle	-11.9528
duncan	-11.9528
ior	-11.9528
▁scandals	-11.9529
nro	-11.9529
river	-11.953
1965	-11.9531
▁blessings	-11.9532
boob	-11.9534
corrupt	-11.9534
▁unable	-11.9536
▁edit	-11.9538
▁doping	-11.9538
▁desperately	-11.954
connect	-11.954
▁jumped	-11.954
msk	-11.9544
▁cab	-11.9545
▁buses	-11.9545
math	-11.9547
ivi	-11.9548
▁bully	-11.9548
mud	-11.9548
judy	-11.9549
mckinney	-11.955
pics	-11.9551
ghetto	-11.9551
▁bullets	-11.9551
dsda	-11.9552
smoke	-11.9554
▁vanessa	-11.9554
_12	-11.9557
sul	-11.9557
demdebatemiami	-11.9558
▁sandratxas	-11.956
2012	-11.956
ashton	-11.956
fsu	-11.9561
carroll	-11.9561
ife	-11.9563
icu	-11.9564
few	-11.9564
blackpeople	-11.9565
luh	-11.9566
▁caring	-11.9567
▁curious	-11.9567
meyer	-11.9573
msf	-11.9576
fusion	-11.9576
▁censorship	-11.9577
▁trusted	-11.9578
joel	-11.9578
organize	-11.9578
▁snoop	-11.9581
▁outfit	-11.9581
▁chapo	-11.9582
lix	-11.9582
kyu	-11.9584
▁eminem	-11.9585
▁assaults	-11.9587
gna	-11.959
▁transport	-11.9592
fighting	-11.9593
▁holly	-11.9595
▁ego	-11.9597
д	-11.9598
▁colbert	-11.9598
▁grief	-11.9598
pub	-11.96
▁undercover	-11.96
▁plaza	-11.96
frm	-11.9602
truck	-11.9602
▁spots	-11.9608
▁wheel	-11.961
ameliss	-11.9614
kristen	-11.9614
▁permanent	-11.9616
barnes	-11.9617
chad	-11.9617
rch	-11.9618
aha	-11.9618
vfl	-11.9619
inning	-11.9621
▁smuggling	-11.9622
🥰	-11.9622
zap	-11.9622
▁motivated	-11.9622
data	-11.9622
▁wherever	-11.9623
▁towns	-11.9624
horse	-11.9626
zero	-11.9627
▁ravens	-11.963
jad	-11.9631
▁carol	-11.9636
▁criticizes	-11.964
uro	-11.9642
thegreat	-11.9642
progressive	-11.9644
thompson	-11.9645
▁category	-11.9646
▁swiss	-11.9647
licious	-11.9647
▁reflect	-11.9648
republicans	-11.9648
▁broadcast	-11.9648
anderr	-11.9649
▁nominees	-11.9649
inder	-11.965
▁escapes	-11.965
pokemongo	-11.9652
▁improvement	-11.9652
▁troubled	-11.9653
peo	-11.9654
nug	-11.9654
▁sunset	-11.9654
sina	-11.9655
▁yuge	-11.9655
mashup	-11.9656
▁whistleblower	-11.9657
▁legalize	-11.9663
selling	-11.9668
emer	-11.9669
records	-11.967
⚡	-11.9671
rte	-11.9673
▁exploit	-11.9673
▁logo	-11.9674
idlib	-11.9676
▁stink	-11.9677
▁handling	-11.9678
pak	-11.9679
▁defended	-11.9681
▁jihadists	-11.9682
▁sexism	-11.9685
curl	-11.969
lhh	-11.969
▁founding	-11.9691
terr	-11.9691
▁unfair	-11.9692
evi	-11.9693
ghan	-11.9695
▁moms	-11.9696
kgb	-11.9697
mug	-11.9697
▁requests	-11.9698
▁temp	-11.9699
riq	-11.97
▁invites	-11.9701
▁614	-11.9701
bjp	-11.9703
icc	-11.9703
cke	-11.9704
foster	-11.9705
▁chick	-11.9707
naomi	-11.9707
rank	-11.9707
captures	-11.9709
goon	-11.971
▁displaced	-11.9711
anime	-11.9711
▁releas	-11.9711
aris	-11.9712
▁criticize	-11.9713
▁attending	-11.9713
▁leaking	-11.9716
pure	-11.9717
▁devastating	-11.9718
hak	-11.972
uce	-11.972
▁sons	-11.9721
▁drove	-11.9722
180	-11.9722
rule	-11.9724
foreign	-11.9726
▁sara	-11.9726
seth	-11.9728
ising	-11.9728
refugee	-11.9729
bik	-11.9729
viola	-11.9729
tors	-11.973
suit	-11.9733
▁noon	-11.9734
▁tighten	-11.9735
ony	-11.9739
shes	-11.974
island	-11.9741
▁praised	-11.9742
chandler	-11.9742
berkeley	-11.9743
pai	-11.9746
▁scratch	-11.9746
maggie	-11.9748
vander	-11.9748
aci	-11.9748
townhall	-11.9748
▁forms	-11.9749
captain	-11.9751
▁recalled	-11.9753
▁leo	-11.9754
reddit	-11.9755
itty	-11.9756
▁misses	-11.9756
ctr	-11.9757
▁picking	-11.9758
pope	-11.9758
tune	-11.9759
▁lonely	-11.9762
artyou	-11.9762
▁pages	-11.9763
▁danny	-11.9764
▁negro	-11.9764
▁log	-11.9765
zack	-11.9766
▁primaries	-11.9766
iwishi	-11.9767
▁08/2017	-11.9767
▁parnas	-11.9767
canhear	-11.9767
▁donates	-11.9767
idea	-11.9768
▁dogg	-11.9772
nash	-11.9774
nim	-11.9776
▁clears	-11.9776
▁investigations	-11.9776
welcome	-11.9776
▁fined	-11.9779
gta	-11.9781
suf	-11.9781
▁dow	-11.9782
▁lifestyle	-11.9783
▁graffiti	-11.9783
shell	-11.9783
paz	-11.9784
phillips	-11.9785
urg	-11.9786
psych	-11.9786
▁flotus	-11.9786
joo	-11.9786
ginger	-11.9787
▁boots	-11.9788
marilyn	-11.9789
▁austria	-11.9789
kul	-11.9789
▁bankrupt	-11.9789
▁delaware	-11.9791
▁eventually	-11.9791
▁arguing	-11.9791
▁coroner	-11.9791
harriet	-11.9791
empower	-11.9793
nqu	-11.9793
ifm	-11.9793
astic	-11.9795
urb	-11.9795
nobody	-11.9796
▁sneak	-11.9796
omar	-11.9798
▁lick	-11.98
flow	-11.9801
▁strict	-11.9805
▁explosive	-11.9805
latte	-11.9805
stupid	-11.9805
phx	-11.9806
▁sacramento	-11.9807
bring	-11.9811
hua	-11.9812
giv	-11.9813
blackout	-11.9813
▁volume	-11.9815
▁pervert	-11.9815
bash	-11.9816
amymek	-11.9816
▁mvp	-11.9817
▁terrifying	-11.9817
radical	-11.9818
usmc	-11.9821
▁trucks	-11.9821
▁robin	-11.9822
▁abolish	-11.9822
▁gorilla	-11.9826
barb	-11.9826
▁adele	-11.9828
general	-11.9828
pov	-11.9829
▁uncover	-11.983
▁nun	-11.9832
mingu	-11.9832
vii	-11.9833
▁entered	-11.9835
erman	-11.9836
▁cuyahoga	-11.9839
▁supplies	-11.9839
▁bengals	-11.9839
▁interior	-11.9839
▁load	-11.984
icy	-11.9844
▁personality	-11.9845
▁bland	-11.9846
jov	-11.9849
liber	-11.9849
spoon	-11.9849
adns	-11.9851
boat	-11.9851
ppp	-11.9853
grey	-11.9853
maybe	-11.9853
nin	-11.9854
▁provides	-11.9856
guard	-11.9857
nge	-11.9863
▁suffered	-11.9863
adore	-11.9863
▁opposing	-11.9864
▁bigot	-11.9864
▁rot	-11.9866
gai	-11.9868
seconds	-11.9873
▁obsessed	-11.9874
▁scoop	-11.9874
▁2009	-11.9874
▁trains	-11.9875
ario	-11.9877
▁prompt	-11.9878
feb	-11.9882
▁braces	-11.9882
pti	-11.9883
▁reps	-11.9884
bernard	-11.9885
collins	-11.9888
▁perspective	-11.9888
ols	-11.9888
policeamovie	-11.9889
horsemen	-11.989
jsu	-11.989
▁sector	-11.989
▁abu	-11.989
wib	-11.9891
▁tan	-11.9893
▁gig	-11.9893
▁tornadoes	-11.9895
bdo	-11.9897
nadal	-11.9897
2002	-11.9898
▁spit	-11.9899
holy	-11.9899
rosie	-11.99
yar	-11.99
wip	-11.9902
trader	-11.9904
▁civilian	-11.9905
▁jihadi	-11.9907
▁athlete	-11.9907
nhc	-11.9909
before	-11.9909
103	-11.9909
loud	-11.9909
▁mothers	-11.9911
devo	-11.9912
ggs	-11.9913
sugarpova	-11.9913
▁inaugural	-11.9913
▁legislative	-11.9913
▁cellphone	-11.9913
▁sickening	-11.9913
▁shipping	-11.9914
ces	-11.9914
▁akbar	-11.9915
▁barbara	-11.9915
▁vid	-11.9916
▁letters	-11.9916
domin	-11.9917
odi	-11.9918
games	-11.9919
▁endangered	-11.9919
▁challenger	-11.9919
▁panama	-11.992
backs	-11.992
laup	-11.9922
edward	-11.9923
lue	-11.9925
upp	-11.9926
blaze	-11.9927
tier	-11.9927
obe	-11.9927
▁readers	-11.9927
trumpcare	-11.9928
▁lawsuits	-11.9931
photography	-11.9932
hik	-11.9934
blac	-11.9934
ufo	-11.9936
▁connecticut	-11.9937
tribune	-11.9937
event	-11.9938
▁beware	-11.9938
▁disclose	-11.9938
sabrina	-11.9938
▁staffers	-11.9939
▁grounds	-11.994
lby	-11.994
▁pens	-11.9945
dyn	-11.9946
roman	-11.995
▁engage	-11.995
epp	-11.9951
brenda	-11.9952
blade	-11.9956
ucc	-11.9958
▁screwed	-11.9958
falcon	-11.9959
▁jamie	-11.996
mpy	-11.9961
covfefe	-11.9962
▁manufacturing	-11.9962
▁reunion	-11.9963
ruff	-11.9966
soft	-11.9966
pec	-11.9966
rul	-11.9967
jef	-11.9967
cream	-11.9968
promotion	-11.9968
jayy	-11.9969
elite	-11.9969
▁wiretapping	-11.9972
▁glasses	-11.9972
thefour	-11.9973
▁parkway	-11.9975
oul	-11.9975
folk	-11.9976
echo	-11.9976
▁junk	-11.9976
classic	-11.9977
fey	-11.9978
▁roast	-11.9979
repeal	-11.9981
ffs	-11.9982
twas	-11.9982
espn	-11.9985
distribution	-11.9987
▁academic	-11.9987
gender	-11.9987
qdisj	-11.9987
lus	-11.9988
pox	-11.9988
jfk	-11.9988
▁scholar	-11.9989
▁portray	-11.9989
106	-11.999
mog	-11.9991
eyed	-11.9991
▁mcauliffe	-11.9991
nhl	-11.9993
memphis	-11.9993
positive	-11.9994
▁endure	-11.9995
▁theatre	-11.9997
mason	-11.9998
▁aids	-12.0001
jpg	-12.0001
▁determined	-12.0001
▁dre	-12.0005
jamaica	-12.0009
tics	-12.001
cara	-12.001
▁itunes	-12.0011
anncoulter	-12.0012
▁intelligent	-12.0012
vocal	-12.0012
cid	-12.0012
▁purse	-12.0013
▁creation	-12.0013
2,000	-12.0014
▁deserved	-12.0015
1970	-12.0016
aze	-12.0017
amjoy	-12.0019
▁booker	-12.0019
▁klan	-12.0019
nhs	-12.0019
these	-12.002
cey	-12.002
yel	-12.002
martha	-12.002
▁venezuelan	-12.0021
▁torch	-12.0023
ather	-12.0025
,”	-12.0027
hands	-12.0027
cig	-12.0028
foh	-12.0028
second	-12.0028
mey	-12.0029
mlp	-12.003
btw	-12.0031
adri	-12.0031
▁prisonplanet	-12.0033
▁bun	-12.0035
phobia	-12.0035
uno	-12.0035
▁decides	-12.0035
💩	-12.0037
▁stranded	-12.0037
miguel	-12.0037
▁06/2017	-12.0038
▁sunny	-12.0038
using	-12.0039
cfc	-12.0041
▁shortage	-12.0041
▁aint	-12.0041
trusted	-12.0042
dye	-12.0042
▁lobby	-12.005
half	-12.0056
▁cookies	-12.0057
▁soar	-12.0059
xia	-12.0059
isn	-12.006
▁fried	-12.006
▁rout	-12.006
▁absurd	-12.0062
infowars	-12.0062
dunk	-12.0063
▁predicts	-12.0063
▁hating	-12.0064
equal	-12.0066
cook	-12.0066
alli	-12.0067
migos	-12.0068
waz	-12.0069
zei	-12.007
brooklyn	-12.007
▁andrea	-12.007
another	-12.007
▁tourists	-12.0073
indigenous	-12.0075
♥	-12.0075
mam	-12.0075
dine	-12.0076
▁backup	-12.0076
▁lone	-12.0081
joi	-12.0081
▁inappropriate	-12.0081
oly	-12.0082
malcolm	-12.0082
stro	-12.0082
▁treats	-12.0083
▁fierce	-12.0086
exc	-12.0086
judgejeanine	-12.0087
▁sabotage	-12.0087
►	-12.0087
▁species	-12.0088
stacey	-12.0088
holmes	-12.0094
▁drowning	-12.0094
▁wipe	-12.0095
▁somalia	-12.0095
▁jonathan	-12.0095
zol	-12.0097
meme	-12.0098
whe	-12.0099
▁rankings	-12.01
impeachtrump	-12.0104
jonathan	-12.0106
grad	-12.011
thetroublewith	-12.0112
dasongruinamovie	-12.0112
▁prominent	-12.0112
▁bullied	-12.0112
▁carl	-12.0117
▁underwear	-12.0119
▁heather	-12.0119
▁oppressed	-12.012
▁directed	-12.0121
aub	-12.0122
ood	-12.0124
▁younger	-12.0124
▁xmas	-12.0124
lak	-12.0125
▁rebuild	-12.0126
▁determine	-12.0126
agent	-12.0126
vers	-12.0127
▁2010	-12.0129
eater	-12.0129
▁yemeni	-12.013
yna	-12.013
▁disarm	-12.013
hustle	-12.0132
▁tourist	-12.0133
wls	-12.0133
hbo	-12.0135
▁cheering	-12.0137
farm	-12.0138
▁plotting	-12.0139
imos	-12.0139
▁monthly	-12.014
nak	-12.014
mgc	-12.0142
1234	-12.0145
zod	-12.0145
▁dismissed	-12.0147
addict	-12.0148
gud	-12.0149
moss	-12.0151
▁curse	-12.0152
giu	-12.0154
pjn	-12.0157
▁emotions	-12.0158
▁freestyle	-12.0158
buk	-12.0158
▁crushed	-12.0159
▁sunshine	-12.0161
▁victor	-12.0164
lop	-12.0164
moz	-12.0164
▁dodgers	-12.0165
▁falsely	-12.0166
▁motorist	-12.0166
freeman	-12.0167
parks	-12.0168
crooked	-12.0169
rye	-12.0169
▁yankees	-12.0172
bau	-12.0176
ndy	-12.0178
luci	-12.0179
▁pistol	-12.018
woe	-12.0182
station	-12.0186
▁reputation	-12.0187
▁couples	-12.0188
▁abedin	-12.0188
eka	-12.0188
▁belongs	-12.0188
dennis	-12.0188
pear	-12.0189
worm	-12.0191
▁export	-12.0195
▁deplorables	-12.0195
rous	-12.0197
▁shirts	-12.0197
▁theresa	-12.0197
canadian	-12.0197
ega	-12.0197
moral	-12.0202
irish	-12.0203
rapper	-12.0204
▁cair	-12.0204
spe	-12.0205
▁cape	-12.0206
▁snub	-12.0208
▁defect	-12.0208
ldn	-12.021
mile	-12.0212
ibdeditorials	-12.0212
▁terrebehlog	-12.0212
▁universities	-12.0212
washing	-12.0213
▁800	-12.0214
giving	-12.0214
yun	-12.0214
▁slogan	-12.0216
▁walls	-12.0216
▁kneel	-12.0217
oregon	-12.0218
▁fisa	-12.0224
▁strategic	-12.0224
▁hardest	-12.0226
ident	-12.0228
▁depend	-12.0229
main	-12.023
ail	-12.0231
▁investigates	-12.0233
rums	-12.0236
wyd	-12.0237
theartofwar	-12.0238
▁challenging	-12.0238
▁texting	-12.0239
chip	-12.024
▁membership	-12.0241
▁penny	-12.0241
▁10%	-12.0246
boa	-12.0249
gaf	-12.0249
brett	-12.025
▁frame	-12.0251
iwa	-12.0251
nglesurvivaltips	-12.0253
baw	-12.0254
sfpd	-12.0256
irk	-12.0256
border	-12.0259
would	-12.026
!!!!!!	-12.026
eats	-12.026
shoot	-12.0261
▁pun	-12.0262
▁glen	-12.0263
▁crucial	-12.0263
▁corbyn	-12.0263
entjji	-12.0263
fool	-12.0264
▁clapper	-12.0264
▁password	-12.0266
▁meek	-12.0266
jaa	-12.0268
▁snl	-12.0269
▁thick	-12.0269
hundred	-12.027
education	-12.027
anger	-12.0271
sib	-12.0272
▁pimp	-12.0273
ybii	-12.0274
dump	-12.0275
▁contra	-12.0279
▁ward	-12.0279
arab	-12.028
fff	-12.028
llc	-12.028
suz	-12.0281
hae	-12.0282
▁spiritual	-12.0284
patri	-12.0285
ching	-12.0287
⠀	-12.0289
working	-12.0289
п	-12.0289
athleticstvshows	-12.0289
▁territory	-12.0289
sebastian	-12.0289
▁blatter	-12.029
ounce	-12.029
ebony	-12.0295
films	-12.0297
▁fulfill	-12.0298
▁wifi	-12.03
chelle	-12.0301
kaa	-12.0302
ndo	-12.0303
iness	-12.0303
cne	-12.0306
▁surprising	-12.0309
▁petty	-12.0309
▁bullying	-12.0309
joc	-12.031
bih	-12.031
▁alzheimer	-12.0314
😅	-12.0314
paradise	-12.0314
▁commentator	-12.0316
▁basis	-12.0316
▁tongue	-12.0316
hayes	-12.0318
▁ally	-12.0318
▁pumpkin	-12.0318
mrw	-12.0319
buh	-12.0321
brooks	-12.0321
▁blowing	-12.0324
murray	-12.0325
intercept	-12.0325
norman	-12.0327
jared	-12.0328
▁christiec	-12.0329
eld	-12.0331
chainz	-12.0333
▁delegate	-12.0334
▁sally	-12.0335
▁hint	-12.0336
▁outlet	-12.0336
rta	-12.0336
▁blows	-12.0337
wld	-12.0337
pom	-12.0337
▁tsa	-12.0339
▁relevant	-12.034
shutupamanda	-12.034
lavi	-12.0342
jungle	-12.0343
sei	-12.0347
lsu	-12.0348
▁stall	-12.0349
eca	-12.0356
racial	-12.036
smh	-12.0361
▁licenses	-12.0364
▁tons	-12.0364
▁barn	-12.0364
▁treasury	-12.0366
▁tuition	-12.0366
▁bff	-12.0367
ean	-12.0367
▁nowhere	-12.0367
essence	-12.037
finn	-12.0373
cakes	-12.0375
😡	-12.0376
indict	-12.0379
vma	-12.0379
▁cooler	-12.038
alien	-12.0382
▁crawl	-12.0382
▁aides	-12.0387
wii	-12.0388
▁unions	-12.039
▁script	-12.0391
fans	-12.0391
chucknellis	-12.0391
▁explanation	-12.0391
▁priebus	-12.0391
▁providing	-12.0391
▁wheelchair	-12.0392
▁dates	-12.0393
▁fridge	-12.0395
alu	-12.0396
▁appropriate	-12.0397
exclusive	-12.0398
voting	-12.04
▁sadly	-12.0401
▁biz	-12.0401
▁vow	-12.0402
▁outdoor	-12.0403
▁fields	-12.0404
ibm	-12.0404
weed	-12.0404
▁chargers	-12.0405
▁stroke	-12.0405
▁mull	-12.0406
direct	-12.0406
▁attorneys	-12.0406
iba	-12.0406
▁destiny	-12.0407
nii	-12.0407
dsnn	-12.0407
▁🤣	-12.0408
latina	-12.0408
▁shakes	-12.0409
uka	-12.0411
michigan	-12.0412
boca	-12.0412
uwc	-12.0412
hic	-12.0412
axi	-12.0413
battle	-12.0413
eil	-12.0414
▁$30	-12.0415
▁gras	-12.0416
conscious	-12.0416
nun	-12.0419
fifty	-12.0419
▁comfortable	-12.0419
▁fastest	-12.0423
iev	-12.0424
lilly	-12.0426
kaw	-12.0427
wash	-12.0428
ety	-12.0429
▁cheers	-12.043
▁fargo	-12.0432
▁evacuate	-12.0433
gei	-12.0434
▁cafe	-12.0434
▁increasing	-12.0437
matic	-12.0439
☺	-12.044
cooper	-12.0442
bib	-12.0443
flintwatercrisis	-12.0443
moy	-12.0444
▁bedroom	-12.0444
▁citing	-12.0445
jog	-12.0445
eria	-12.0446
▁instant	-12.0446
▁nails	-12.0446
vanessa	-12.0446
▁lakewood	-12.0447
penny	-12.0448
fid	-12.0448
spend	-12.045
▁minneapolis	-12.0451
▁spoken	-12.0454
bravo	-12.0454
▁bonus	-12.0455
medina	-12.0456
▁pub	-12.0458
meow	-12.0466
eddie	-12.0468
💪	-12.0469
hmm	-12.0469
▁coincidence	-12.0469
😉	-12.0469
nicholas	-12.0469
▁policing	-12.0469
hurricanematthew	-12.0469
▁criticizing	-12.0469
cien	-12.047
▁stays	-12.047
▁digest	-12.0471
▁boeing	-12.0471
▁pneumonia	-12.0471
kag	-12.0473
▁obstruction	-12.0478
▁lips	-12.048
▁ranked	-12.0481
▁criticized	-12.0482
▁gentle	-12.0483
okc	-12.0486
ozy	-12.0486
▁delicious	-12.049
eel	-12.0493
▁rub	-12.0494
▁perez	-12.0494
hhhh	-12.0495
▁females	-12.0495
▁miserably	-12.0495
😆	-12.0495
vej	-12.0495
illuminati	-12.0495
kemusicreligious	-12.0495
▁contribute	-12.0496
▁colour	-12.0497
judicialwatch	-12.0498
gae	-12.0499
gim	-12.0501
urs	-12.0503
orange	-12.0504
mln	-12.0506
▁expo	-12.0506
▁examine	-12.0507
huh	-12.0508
rocks	-12.051
!#	-12.0512
polo	-12.0516
▁trek	-12.0517
dii	-12.0518
▁amanda	-12.0521
minded	-12.0521
▁fundamental	-12.0521
▁singapore	-12.0521
▁thegreatfeather	-12.0521
▁violating	-12.0521
▁bieber	-12.0524
▁combined	-12.0525
lemonade	-12.0526
▁deter	-12.0527
uhr	-12.0529
▁pepsi	-12.0531
▁jackie	-12.0531
▁jean	-12.0532
sic	-12.0533
daa	-12.0533
kuh	-12.0534
dru	-12.0535
plc	-12.0535
▁neighborhoods	-12.0538
110	-12.0538
rec	-12.0539
ulate	-12.0539
arrest	-12.054
▁doll	-12.0542
stars	-12.0543
▁recorded	-12.0545
▁settles	-12.0546
fck	-12.0546
pierce	-12.0547
oza	-12.0547
я	-12.0548
▁prostitute	-12.0548
huffingtonpost	-12.0548
flashbackfriday	-12.0548
wantforchristmas	-12.0548
▁glendale	-12.0548
moa	-12.0548
001	-12.0551
huff	-12.0553
fug	-12.0554
👉	-12.0554
▁trained	-12.0555
bout	-12.0556
▁explained	-12.0557
does	-12.0558
▁odd	-12.0559
fus	-12.0559
essa	-12.056
arp	-12.0561
▁passport	-12.0562
tobe	-12.0562
noah	-12.0563
sister	-12.0563
▁600	-12.0565
▁poet	-12.0566
ulu	-12.0566
abd	-12.0567
chal	-12.0568
jod	-12.0568
▁mocked	-12.0573
kier	-12.0573
ipp	-12.0573
▁compassion	-12.0573
▁weakness	-12.0577
ahi	-12.0579
carlos	-12.058
▁zimbabwe	-12.0581
112	-12.0581
yoga	-12.0583
enberg	-12.0584
jib	-12.0586
sailor	-12.0586
▁prez	-12.0586
zur	-12.0587
▁skinny	-12.0588
outs	-12.0588
▁finale	-12.0588
nni	-12.0589
btc	-12.059
tron	-12.059
frankie	-12.0592
▁140	-12.0593
▁>	-12.0594
▁gained	-12.0596
psalm	-12.0598
alexandria	-12.06
▁importance	-12.06
▁garner	-12.0601
thingspeople	-12.0601
abraham	-12.0601
wade	-12.0601
muz	-12.0601
wellness	-12.0602
▁bolton	-12.0604
griffin	-12.0605
mara	-12.0606
xsl	-12.0609
▁acid	-12.0613
candy	-12.0613
training	-12.0614
▁sponsor	-12.0614
cancer	-12.0616
crea	-12.0617
mbi	-12.0617
▁drudge	-12.062
kwa	-12.062
▁sydney	-12.062
▁knocked	-12.0621
publish	-12.0622
ool	-12.0623
▁janet	-12.0625
▁pistons	-12.0626
212	-12.0627
▁parma	-12.0627
▁oliver	-12.0628
trumprally	-12.0629
▁expecting	-12.0637
▁mug	-12.0638
ads	-12.0639
lana	-12.0641
uaw	-12.0641
rui	-12.0641
▁mat	-12.0643
▁gate	-12.0645
dix	-12.0646
watson	-12.0647
spencer	-12.0648
judge	-12.0649
▁cre	-12.0649
terrorists	-12.0652
oka	-12.0653
▁burden	-12.0653
▁cease	-12.0655
▁impression	-12.0655
▁covers	-12.0655
nez	-12.0657
flex	-12.0657
▁skate	-12.0658
imf	-12.0659
udi	-12.066
politic	-12.0661
▁cries	-12.0662
nsu	-12.0662
▁oprah	-12.0663
▁hail	-12.0665
graph	-12.0665
▁drum	-12.0665
lub	-12.0667
▁survived	-12.0667
cks	-12.067
ement	-12.0671
▁concussion	-12.0671
gne	-12.0674
▁ships	-12.0675
haiti	-12.0677
einstein	-12.0677
christmasin	-12.0679
▁predict	-12.0679
drunkbands	-12.0679
ontwitterlike	-12.0679
stweetinginstead	-12.0679
▁'@_	-12.068
pandora	-12.068
▁motel	-12.068
▁wives	-12.068
▁machines	-12.0681
giant	-12.0681
▁politico	-12.0682
update	-12.0682
retro	-12.0682
▁kneelers	-12.0682
▁derby	-12.0683
▁evolution	-12.0688
▁campbell	-12.0688
▁brag	-12.0689
▁rides	-12.0689
troy	-12.069
reese	-12.0695
yyyyy	-12.0695
osk	-12.0696
▁👀	-12.0698
▁reads	-12.07
▁canyon	-12.07
cowboy	-12.0702
bannon	-12.0702
▁hmm	-12.0702
junkscience	-12.0706
▁napolitano	-12.0706
oscar	-12.0706
eti	-12.0706
▁admission	-12.0707
uvjmw	-12.0707
▁vetting	-12.0708
nfc	-12.0708
juicy	-12.071
rar	-12.071
aol	-12.0711
▁yell	-12.0711
▁defeated	-12.0712
▁flop	-12.0712
divine	-12.0713
vick	-12.0717
plz	-12.0717
clan	-12.0722
lethal	-12.0722
▁sword	-12.0722
▁cough	-12.0728
▁walter	-12.0728
gregory	-12.0729
▁starter	-12.073
▁stabs	-12.0731
jes	-12.0732
owens	-12.0732
rodriguez	-12.0733
▁doomed	-12.0733
▁vagina	-12.0734
blackmoses	-12.0734
nei	-12.0735
▁foolish	-12.0735
1984	-12.0735
▁fiction	-12.0737
pid	-12.0738
▁condo	-12.0739
snap	-12.074
existing	-12.0743
kro	-12.0745
▁finna	-12.0747
▁parker	-12.0748
▁toast	-12.0749
/75	-12.075
mcn	-12.0751
▁rhodes	-12.0751
vegan	-12.0751
cto	-12.0754
ftw	-12.0755
annoy	-12.0758
▁samantha	-12.0759
⚠	-12.0759
aspresidentiwill	-12.0759
▁incredibly	-12.0759
▁ras	-12.076
▁ballistic	-12.076
▁depict	-12.076
▁stable	-12.0761
iliketo	-12.0761
zro	-12.0763
ency	-12.0763
wir	-12.0764
▁wiretap	-12.0766
▁represents	-12.0766
congr	-12.0767
▁handgun	-12.0767
oph	-12.0768
breezy	-12.0769
kenn	-12.0769
uld	-12.0771
helm	-12.0771
rider	-12.0771
hailey	-12.0772
tactical	-12.0774
▁medicare	-12.0775
conserv	-12.0776
▁courthouse	-12.0776
actor	-12.0778
1996	-12.0778
cci	-12.078
akin	-12.0781
wired	-12.0782
roi	-12.0782
benson	-12.0784
rican	-12.0784
central	-12.0784
gga	-12.0785
lte	-12.0785
emc	-12.0786
▁segment	-12.0786
▁starving	-12.0787
sail	-12.0787
vaughn	-12.0787
▁trophy	-12.0788
cnnbrk	-12.0788
▁booed	-12.0789
wide	-12.079
jada	-12.0792
▁fond	-12.0793
▁suggestion	-12.0793
▁guests	-12.0793
gopstop	-12.0795
rgi	-12.0795
melanin	-12.0796
girlfriend	-12.0796
▁momentum	-12.08
▁deployed	-12.0801
oven	-12.0801
hro	-12.0803
▁org	-12.0803
grab	-12.0806
▁excel	-12.0809
olive	-12.0809
germany	-12.0809
pts	-12.0809
1765	-12.081
▁melissa	-12.0811
▁colleagues	-12.0812
giz	-12.0812
wheniamonmyowni	-12.0813
▁structure	-12.0813
😁	-12.0813
▁stump	-12.0815
burger	-12.0815
▁gaza	-12.0818
ease	-12.0822
kenny	-12.0823
pearl	-12.0824
nuh	-12.0824
▁degrees	-12.0825
locked	-12.0826
kiy	-12.0828
jojo	-12.0829
▁blah	-12.083
▁industrial	-12.0831
▁developing	-12.0832
nsw	-12.0832
greta	-12.0834
▁survives	-12.0837
▁fave	-12.0837
▁branch	-12.0838
sandrabland	-12.084
gurl	-12.084
enterprise	-12.084
▁reinstate	-12.0841
▁abusing	-12.0841
▁revolutionary	-12.0842
easing	-12.0844
tiger	-12.0844
1992	-12.0844
kaf	-12.0844
wendy	-12.0844
“	-12.0847
eke	-12.0849
▁aftermath	-12.0852
▁ralph	-12.0852
reparations	-12.0853
▁dismiss	-12.0853
theblaze	-12.0854
cte	-12.0854
dna	-12.0855
▁wasting	-12.0855
▁involve	-12.0858
oll	-12.0858
▁warner	-12.0858
▁syrians	-12.0859
gip	-12.086
▁organic	-12.086
gates	-12.086
ioc	-12.0862
▁thx	-12.0862
▁virtual	-12.0863
▁laughed	-12.0866
808	-12.0866
lannedparenthood	-12.0867
▁blumenthal	-12.0867
▁nicole	-12.0867
▁tractor	-12.0867
biggboss	-12.0867
▁begging	-12.0868
plans	-12.0868
bros	-12.087
laughter	-12.0873
byg	-12.0873
▁nerve	-12.0873
▁hats	-12.0875
pik	-12.0875
gone	-12.0876
ppe	-12.0877
ically	-12.0879
▁mills	-12.0879
afilm	-12.0882
▁insulting	-12.0885
faced	-12.0885
butiw	-12.0886
▁undo	-12.0887
▁cleanup	-12.0889
kow	-12.089
▁bots	-12.089
▁masked	-12.089
▁sprint	-12.0894
▁hysteria	-12.0894
caitlin	-12.0895
▁chasing	-12.0895
▁chad	-12.0896
clayton	-12.0896
audrey	-12.0896
edwards	-12.0896
▁stonewall	-12.0898
▁introduces	-12.0899
▁contracts	-12.0902
▁weaken	-12.0903
▁morris	-12.0907
linked	-12.0908
▁traveling	-12.0908
champ	-12.0909
▁poisoning	-12.0911
qay	-12.0911
▁behalf	-12.0913
▁shady	-12.0915
fae	-12.0915
mok	-12.0916
stig	-12.0917
▁earns	-12.0917
pah	-12.0918
/19	-12.0918
holm	-12.0919
▁rocky	-12.092
phenom	-12.0921
▁smiling	-12.0922
mailonline	-12.0922
▁genres	-12.0923
▁aimed	-12.0923
▁diverse	-12.0924
▁censor	-12.0925
fsb	-12.0926
▁prof	-12.0926
▁bowie	-12.0927
hari	-12.0932
▁👍	-12.0934
unlikely	-12.0937
english	-12.0937
▁builds	-12.0938
number	-12.094
lty	-12.0942
▁buffalo	-12.0943
uting	-12.0943
▁arctic	-12.0943
▁ranks	-12.0943
▁burst	-12.0943
▁marc	-12.0943
baj	-12.0944
▁tolerance	-12.0944
ebe	-12.0946
manda	-12.0947
illy	-12.0948
▁craig	-12.0948
theclobra	-12.0949
▁ambulance	-12.0949
▁existence	-12.095
▁badass	-12.095
ffa	-12.0951
nzo	-12.0951
killing	-12.0952
atter	-12.0953
▁colon	-12.0954
francis	-12.0954
rite	-12.0955
▁bolt	-12.0957
▁halftime	-12.0958
▁franchise	-12.0959
▁kenyan	-12.0959
▁predicted	-12.0961
▁pad	-12.0962
▁dudes	-12.0963
▁profits	-12.0963
aig	-12.0964
unity	-12.0964
xyz	-12.0965
▁skill	-12.0966
schultz	-12.0967
▁explosions	-12.0969
bible	-12.097
kib	-12.0971
💦	-12.0976
blackgirlmagic	-12.0976
circ	-12.0977
▁precious	-12.0977
mash	-12.0977
shine	-12.0983
▁latin	-12.0983
oge	-12.0983
jazzy	-12.0985
ysl	-12.0985
▁lena	-12.0986
coleman	-12.0987
▁reince	-12.0987
kik	-12.0989
▁poem	-12.0991
dapl	-12.0993
▁mason	-12.0995
/28	-12.0995
▁islamists	-12.0996
rocket	-12.0997
pablo	-12.0999
vicious	-12.1
zek	-12.1001
hanna	-12.1001
ofa	-12.1002
vyn	-12.1003
▁rings	-12.1003
whyimgangsta	-12.1003
▁supervisor	-12.1003
▁rosenstein	-12.1003
angryref	-12.1004
bff	-12.1004
auspol	-12.1004
gxl	-12.1004
▁superior	-12.1005
shire	-12.1005
▁oust	-12.1006
▁kobe	-12.1006
kyo	-12.1007
__:	-12.1008
▁$70	-12.1008
▁priorities	-12.1008
▁vodka	-12.101
flag	-12.1013
▁omar	-12.1014
ingle	-12.1017
email	-12.102
▁superhero	-12.1024
reality	-12.1024
▁castle	-12.1025
fiq	-12.1025
searches	-12.1026
bop	-12.1027
sole	-12.1027
netflix	-12.1027
▁expanding	-12.1028
▁irrelevant	-12.1031
▁prescription	-12.1031
▁escalate	-12.1031
▁remote	-12.1031
▁proving	-12.1031
▁cleric	-12.1032
kels	-12.1032
▁madonna	-12.1032
defundpp	-12.1033
hilary	-12.1034
▁backyard	-12.1037
ced	-12.1039
▁blair	-12.1039
▁formula	-12.104
▁kane	-12.104
ssy	-12.1043
mvp	-12.1043
sted	-12.1044
▁poop	-12.1044
weekend	-12.1044
lox	-12.1044
jord	-12.1044
ysm	-12.1045
onna	-12.1047
patriotic	-12.1048
kka	-12.1051
hri	-12.1053
▁marshall	-12.1053
union	-12.1055
▁fled	-12.1056
unite	-12.1056
navarro	-12.1058
lindasuhler	-12.1058
todayinsyria	-12.1058
▁verizon	-12.1058
▁helmet	-12.1059
gain	-12.1059
▁hud	-12.106
1964	-12.1062
▁selected	-12.1063
myb	-12.1064
rubio	-12.1064
yug	-12.1064
ovi	-12.1064
▁nas	-12.1064
▁engineer	-12.1065
lander	-12.1066
ifa	-12.1068
csm	-12.1069
▁mardi	-12.1069
ransom	-12.1071
▁youngest	-12.1071
xii	-12.1072
scho	-12.1072
/08	-12.1073
laud	-12.1074
▁phrase	-12.1074
eaux	-12.1075
cag	-12.1075
luz	-12.1075
hatter	-12.1077
ctv	-12.1078
▁surprises	-12.1079
saf	-12.108
▁heck	-12.108
▁ahmad	-12.1084
▁continued	-12.1084
ooooo	-12.1084
к	-12.1086
▁celebrated	-12.1086
▁activities	-12.1086
▁allegiance	-12.1086
▁testifies	-12.1087
▁modi	-12.1088
▁naval	-12.1088
▁vent	-12.1089
1017	-12.1089
grammys	-12.109
▁bald	-12.1091
▁filing	-12.1091
▁scientist	-12.1091
uax	-12.1092
nub	-12.1092
tiff	-12.1093
istandwith	-12.1093
asu	-12.1093
lose	-12.1097
yle	-12.1098
haq	-12.1099
yuh	-12.11
▁siege	-12.1101
▁musk	-12.1101
milk	-12.1102
▁fade	-12.1104
bright	-12.1105
▁producers	-12.1105
moi	-12.1106
▁principles	-12.1107
▁assassinated	-12.1107
▁$400	-12.1107
shark	-12.1108
mav	-12.1108
daw	-12.1109
▁guilt	-12.1109
pud	-12.1109
rest	-12.111
toni	-12.111
▁powell	-12.1113
▁gloria	-12.1113
tidalhifi	-12.1114
▁triumph	-12.1114
stuff	-12.1114
tate	-12.1114
▁softball	-12.1115
rude	-12.1115
▁abroad	-12.1115
adr	-12.1117
dancer	-12.1117
nji	-12.1119
▁pond	-12.112
garrett	-12.112
▁intended	-12.1121
▁interim	-12.1121
lime	-12.1122
▁philippine	-12.1125
without	-12.1127
wale	-12.1131
indy	-12.1131
blackwomen	-12.1131
govern	-12.1132
indi	-12.1133
questions	-12.1134
▁tyson	-12.1134
▁nest	-12.1135
▁mitchell	-12.1136
revolution	-12.1138
▁appoint	-12.1138
oci	-12.1138
▁tapper	-12.1139
rivera	-12.1139
woke	-12.1139
kki	-12.114
▁robs	-12.114
▁sketch	-12.1141
▁endless	-12.1141
⇒	-12.1142
▁larger	-12.1144
cdc	-12.1144
▁provided	-12.1147
xel	-12.1147
radi	-12.1149
diversity	-12.1149
soccer	-12.115
pound	-12.115
anni	-12.1151
eto	-12.1152
jav	-12.1153
mrz	-12.1154
187	-12.1157
mua	-12.1162
hawks	-12.1162
▁genuine	-12.1164
granny	-12.1164
pup	-12.1164
ipo	-12.1164
obv	-12.1166
▁courts	-12.1166
superstar	-12.1169
mercedes	-12.1169
inspired	-12.117
▁belgian	-12.117
▁barrier	-12.117
jimacosta	-12.117
astirk	-12.117
zou	-12.117
▁niece	-12.117
▁outlets	-12.1171
eazy	-12.1173
olf	-12.1173
hbcu	-12.1175
lui	-12.1176
/18	-12.1176
▁frustrated	-12.1176
bond	-12.1177
▁punches	-12.1177
lace	-12.1179
jpd	-12.118
lii	-12.1181
▁fever	-12.1183
▁extended	-12.1184
msy	-12.1186
aged	-12.1187
shack	-12.1187
breed	-12.1189
nancy	-12.1189
▁junior	-12.1189
▁centre	-12.119
▁rushed	-12.119
rough	-12.119
nike	-12.119
jeh	-12.1191
▁duterte	-12.1197
▁nervous	-12.1197
▁bureau	-12.1197
▁whining	-12.1197
kez	-12.1198
unlikelythings	-12.1198
gad	-12.1198
▁chanting	-12.1198
dhd	-12.12
▁imran	-12.1201
bianca	-12.1201
btwx	-12.1202
oga	-12.1202
▁properly	-12.1205
[	-12.1206
almighty	-12.1209
♡	-12.121
wednesday	-12.1211
ruh	-12.1211
stewart	-12.1211
▁megan	-12.1212
▁lamb	-12.1212
credible	-12.1212
zey	-12.1213
▁interrupt	-12.1214
cies	-12.1219
ffy	-12.122
▁sf	-12.1221
dispatch	-12.1224
idd	-12.1225
mila	-12.1225
▁gartrelllinda	-12.1225
type	-12.1225
pio	-12.1225
mein	-12.1227
cvn	-12.1227
kaitlyn	-12.1228
stunned	-12.1228
enz	-12.1228
▁kingdom	-12.1229
▁adoption	-12.1229
lean	-12.123
voa	-12.1232
▁harrison	-12.1233
▁ireland	-12.1233
▁greatness	-12.1235
ciara	-12.1235
dou	-12.1236
trash	-12.1236
sac	-12.1236
plant	-12.1239
chels	-12.124
nature	-12.1241
atz	-12.1241
▁tpp	-12.1243
naacp	-12.1244
▁kris	-12.1245
▁hometown	-12.1246
mtn	-12.1249
gran	-12.1249
▁prostitution	-12.1249
▁100,000	-12.1252
▁fortune	-12.1253
enimsotallytober	-12.1253
▁conclusion	-12.1253
▁dinosaur	-12.1253
fabulous	-12.1253
▁reduced	-12.1255
20,000	-12.1255
▁jojoh	-12.1256
teresa	-12.1256
naughty	-12.1256
▁monitoring	-12.1258
▁taser	-12.1259
▁outstanding	-12.126
epic	-12.1265
▁receiver	-12.1265
kenya	-12.1267
hype	-12.1268
lsd	-12.1269
flynn	-12.1272
museum	-12.1275
gry	-12.1277
vincent	-12.1277
democracy	-12.1279
envy	-12.1279
youth	-12.128
inch	-12.1281
instotus	-12.1282
▁incompetent	-12.1282
▁casualties	-12.1282
▁funniest	-12.1282
▁pattern	-12.1282
timothy	-12.1282
▁lunatic	-12.1282
▁clinch	-12.1282
ralph	-12.1284
awi	-12.1285
buster	-12.1286
▁admire	-12.1286
__0	-12.1287
otu	-12.1287
▁harsh	-12.129
▁pocahontas	-12.129
▁previously	-12.129
cpc	-12.1291
cheek	-12.1292
iou	-12.1294
fia	-12.1294
▁cardio	-12.1295
ground	-12.1297
▁smaller	-12.1299
hampton	-12.1299
▁recovering	-12.13
▁locker	-12.13
▁sooo	-12.1302
staff	-12.1304
victor	-12.1307
▁coat	-12.131
jenkins	-12.1311
▁clooney	-12.1311
▁occur	-12.1312
▁anytime	-12.1313
▁haircut	-12.1313
▁sidewalk	-12.1313
malley	-12.1315
▁priceless	-12.1316
▁mit	-12.1317
drunk	-12.1319
▁lung	-12.1321
▁lean	-12.1323
▁visited	-12.1325
lara	-12.1326
▁nascar	-12.1327
rsi	-12.1327
▁pundit	-12.1328
dej	-12.133
blair	-12.133
dixon	-12.1334
phoenix	-12.1335
▁gordon	-12.1336
mpg	-12.1337
fru	-12.1337
▁manslaughter	-12.1338
eurweb	-12.1338
▁bryan	-12.134
dvr	-12.1341
▁stepping	-12.1341
htf	-12.1341
trish	-12.1342
▁gala	-12.1342
▁dishes	-12.1344
bama	-12.1344
mgm	-12.1345
▁astros	-12.1347
▁kindness	-12.1351
▁♥	-12.1351
aim	-12.1352
▁distraction	-12.1353
▁hastert	-12.1356
focus	-12.1356
👏	-12.1356
pag	-12.1357
▁tampa	-12.1358
▁coaching	-12.136
mole	-12.1363
hra	-12.1364
▁straw	-12.1365
🚫	-12.1366
andyhashtagger	-12.1367
▁believing	-12.1367
▁obliterate	-12.1367
💀	-12.1367
basketofdeplorab	-12.1367
papa	-12.1367
howtoget	-12.1367
▁operator	-12.1367
▁warplanes	-12.1368
▁🐇	-12.1369
gibson	-12.137
jaf	-12.1371
▁assets	-12.1371
swa	-12.1371
shoe	-12.1372
▁stephanie	-12.1373
▁insist	-12.1373
mbe	-12.1376
▁vince	-12.1379
jez	-12.1381
michele	-12.1382
oui	-12.1384
1994	-12.139
screen	-12.1391
▁intellectual	-12.1394
ordinary	-12.1395
mrnegromilitant	-12.1395
megynkelly	-12.1395
▁submarine	-12.1395
▁kabul	-12.1396
fdr	-12.1397
realjameswoods	-12.1397
▁insurer	-12.1398
wiki	-12.1398
999	-12.1399
lbc	-12.1399
▁slightly	-12.1399
▁birther	-12.1401
leh	-12.1401
fud	-12.1403
charge	-12.1406
oip	-12.1407
sou	-12.1407
▁theme	-12.1407
6,000	-12.1408
▁ima	-12.1409
▁assholes	-12.1411
drj	-12.1411
▁adams	-12.1411
▁cdc	-12.1415
idy	-12.1415
kob	-12.1417
brock	-12.1418
zsz	-12.1422
▁jbwredsox	-12.1424
▁striking	-12.1424
sethrich	-12.1424
▁swimmer	-12.1425
▁turtle	-12.1427
japan	-12.1427
aoc	-12.143
regina	-12.143
together	-12.1432
▁establish	-12.1433
▁karen	-12.1437
done	-12.144
▁irving	-12.144
1997	-12.1442
orc	-12.1443
liu	-12.1444
▁educate	-12.1445
poi	-12.1446
▁effects	-12.1446
loving	-12.1447
jedi	-12.1447
oze	-12.1449
which	-12.145
jelly	-12.1451
kush	-12.1452
▁barricade	-12.1452
▁utility	-12.1452
▁diplomats	-12.1454
▁pillow	-12.1454
▁resigned	-12.1454
bmg	-12.1454
[...]
